unsigned char model_tflite[] = {
  0x1c, 0x00, 0x00, 0x00, 0x54, 0x46, 0x4c, 0x33, 0x14, 0x00, 0x20, 0x00,
  0x1c, 0x00, 0x18, 0x00, 0x14, 0x00, 0x10, 0x00, 0x0c, 0x00, 0x00, 0x00,
  0x08, 0x00, 0x04, 0x00, 0x14, 0x00, 0x00, 0x00, 0x1c, 0x00, 0x00, 0x00,
  0x1c, 0x00, 0x00, 0x00, 0x74, 0x00, 0x00, 0x00, 0xf4, 0x6a, 0x00, 0x00,
  0x04, 0x6b, 0x00, 0x00, 0x8c, 0x78, 0x00, 0x00, 0x03, 0x00, 0x00, 0x00,
  0x00, 0x00, 0x00, 0x00, 0x02, 0x00, 0x00, 0x00, 0x34, 0x00, 0x00, 0x00,
  0x04, 0x00, 0x00, 0x00, 0xdc, 0xff, 0xff, 0xff, 0x1b, 0x00, 0x00, 0x00,
  0x04, 0x00, 0x00, 0x00, 0x13, 0x00, 0x00, 0x00, 0x43, 0x4f, 0x4e, 0x56,
  0x45, 0x52, 0x53, 0x49, 0x4f, 0x4e, 0x5f, 0x4d, 0x45, 0x54, 0x41, 0x44,
  0x41, 0x54, 0x41, 0x00, 0x08, 0x00, 0x0c, 0x00, 0x08, 0x00, 0x04, 0x00,
  0x08, 0x00, 0x00, 0x00, 0x1a, 0x00, 0x00, 0x00, 0x04, 0x00, 0x00, 0x00,
  0x13, 0x00, 0x00, 0x00, 0x6d, 0x69, 0x6e, 0x5f, 0x72, 0x75, 0x6e, 0x74,
  0x69, 0x6d, 0x65, 0x5f, 0x76, 0x65, 0x72, 0x73, 0x69, 0x6f, 0x6e, 0x00,
  0x1c, 0x00, 0x00, 0x00, 0x7c, 0x6a, 0x00, 0x00, 0x74, 0x6a, 0x00, 0x00,
  0xe4, 0x69, 0x00, 0x00, 0x54, 0x69, 0x00, 0x00, 0x04, 0x69, 0x00, 0x00,
  0xe4, 0x68, 0x00, 0x00, 0xc8, 0x68, 0x00, 0x00, 0xb8, 0x59, 0x00, 0x00,
  0xa8, 0x29, 0x00, 0x00, 0x98, 0x11, 0x00, 0x00, 0x80, 0x11, 0x00, 0x00,
  0x64, 0x11, 0x00, 0x00, 0x40, 0x11, 0x00, 0x00, 0xf0, 0x00, 0x00, 0x00,
  0xe8, 0x00, 0x00, 0x00, 0xe0, 0x00, 0x00, 0x00, 0xd8, 0x00, 0x00, 0x00,
  0xd0, 0x00, 0x00, 0x00, 0xc8, 0x00, 0x00, 0x00, 0xc0, 0x00, 0x00, 0x00,
  0xb8, 0x00, 0x00, 0x00, 0xb0, 0x00, 0x00, 0x00, 0xa8, 0x00, 0x00, 0x00,
  0xa0, 0x00, 0x00, 0x00, 0x98, 0x00, 0x00, 0x00, 0x90, 0x00, 0x00, 0x00,
  0x70, 0x00, 0x00, 0x00, 0x04, 0x00, 0x00, 0x00, 0x52, 0x95, 0xff, 0xff,
  0x04, 0x00, 0x00, 0x00, 0x5c, 0x00, 0x00, 0x00, 0x0c, 0x00, 0x00, 0x00,
  0x08, 0x00, 0x0e, 0x00, 0x08, 0x00, 0x04, 0x00, 0x08, 0x00, 0x00, 0x00,
  0x14, 0x00, 0x00, 0x00, 0x2c, 0x00, 0x00, 0x00, 0x00, 0x00, 0x0a, 0x00,
  0x0c, 0x00, 0x08, 0x00, 0x00, 0x00, 0x07, 0x00, 0x0a, 0x00, 0x00, 0x00,
  0x00, 0x00, 0x00, 0x01, 0x04, 0x00, 0x00, 0x00, 0x00, 0x00, 0x00, 0x00,
  0x00, 0x00, 0x0a, 0x00, 0x10, 0x00, 0x0c, 0x00, 0x08, 0x00, 0x04, 0x00,
  0x0a, 0x00, 0x00, 0x00, 0x03, 0x00, 0x00, 0x00, 0x02, 0x00, 0x00, 0x00,
  0x04, 0x00, 0x00, 0x00, 0x06, 0x00, 0x00, 0x00, 0x32, 0x2e, 0x31, 0x35,
  0x2e, 0x30, 0x00, 0x00, 0xba, 0x95, 0xff, 0xff, 0x04, 0x00, 0x00, 0x00,
  0x10, 0x00, 0x00, 0x00, 0x31, 0x2e, 0x36, 0x2e, 0x30, 0x00, 0x00, 0x00,
  0x00, 0x00, 0x00, 0x00, 0x00, 0x00, 0x00, 0x00, 0xfc, 0x88, 0xff, 0xff,
  0x00, 0x89, 0xff, 0xff, 0x04, 0x89, 0xff, 0xff, 0x08, 0x89, 0xff, 0xff,
  0x0c, 0x89, 0xff, 0xff, 0x10, 0x89, 0xff, 0xff, 0x14, 0x89, 0xff, 0xff,
  0x18, 0x89, 0xff, 0xff, 0x1c, 0x89, 0xff, 0xff, 0x20, 0x89, 0xff, 0xff,
  0x24, 0x89, 0xff, 0xff, 0x28, 0x89, 0xff, 0xff, 0x06, 0x96, 0xff, 0xff,
  0x04, 0x00, 0x00, 0x00, 0x40, 0x10, 0x00, 0x00, 0x92, 0x53, 0xf9, 0x3c,
  0xa5, 0x99, 0xa9, 0xbc, 0x5a, 0x00, 0xaf, 0xbd, 0xbb, 0x50, 0x49, 0x3c,
  0xdd, 0x80, 0x0f, 0xbc, 0xf2, 0x16, 0xae, 0x3c, 0xf7, 0x4e, 0x5a, 0xbd,
  0xa5, 0xb5, 0x2d, 0x3d, 0x96, 0xdf, 0x5a, 0x3c, 0x0a, 0x00, 0x23, 0x3d,
  0x9e, 0xc9, 0x0f, 0xbc, 0xff, 0xc8, 0x4b, 0xbd, 0x61, 0x16, 0x98, 0xbd,
  0xd3, 0x4a, 0x13, 0xbe, 0x6c, 0x8d, 0xe2, 0xbc, 0x3e, 0x6b, 0xa9, 0xbd,
  0x79, 0x8e, 0x8c, 0xbd, 0x65, 0x27, 0x87, 0xbb, 0x7a, 0x19, 0xd0, 0x3c,
  0xb2, 0x41, 0x1a, 0xbc, 0xc4, 0x4b, 0x19, 0x3d, 0x07, 0x05, 0x3a, 0xbd,
  0x71, 0x20, 0x8d, 0xbd, 0x5a, 0xe1, 0x2f, 0xbb, 0x6b, 0xbd, 0xc1, 0xbd,
  0x05, 0xbc, 0x08, 0xbd, 0x4b, 0xe9, 0x82, 0x3d, 0x7c, 0xe5, 0x1f, 0x3c,
  0x31, 0xca, 0xe3, 0x3d, 0x89, 0xc3, 0x06, 0x3d, 0xe1, 0x71, 0x78, 0x3c,
  0x3a, 0x00, 0x6a, 0x3d, 0x39, 0x6d, 0x5b, 0xbd, 0x18, 0xe5, 0x2a, 0x3b,
  0x03, 0x00, 0x04, 0xbc, 0xde, 0x64, 0x02, 0x3d, 0x4b, 0xb6, 0xbf, 0xbd,
  0xc7, 0xb2, 0xf8, 0x3d, 0x43, 0x31, 0x5f, 0x3d, 0xcd, 0x50, 0x98, 0x3d,
  0xb1, 0x91, 0xef, 0x3d, 0x4b, 0x9e, 0x30, 0x3d, 0x42, 0x7a, 0x87, 0x3c,
  0x75, 0xba, 0xb5, 0xbb, 0xb9, 0x7c, 0x37, 0x3d, 0x09, 0x10, 0x04, 0xbd,
  0x0a, 0x3d, 0xb1, 0xbb, 0x5d, 0xe1, 0x9d, 0x3d, 0x9b, 0xf1, 0x08, 0x3d,
  0x0c, 0x0a, 0xf9, 0x3d, 0xce, 0xa8, 0xc0, 0x3d, 0x0b, 0x3d, 0x14, 0x3d,
  0xb3, 0xcb, 0x00, 0xbe, 0x86, 0x59, 0xde, 0x3d, 0xa3, 0xc1, 0xc2, 0xbc,
  0xf4, 0xbe, 0x95, 0x3c, 0xd7, 0x19, 0xd2, 0xbd, 0x63, 0x61, 0x83, 0xbc,
  0x68, 0xa4, 0xbe, 0xbd, 0x6e, 0x7b, 0x42, 0xbd, 0x3d, 0x98, 0xf6, 0xbd,
  0xdd, 0x9a, 0x0e, 0xbe, 0xa3, 0x27, 0x02, 0xbd, 0x4b, 0x9d, 0x2b, 0x3d,
  0xac, 0xc5, 0xf4, 0xbc, 0xc5, 0xa4, 0xb2, 0x3c, 0x08, 0x55, 0x87, 0x3d,
  0x87, 0x24, 0x83, 0x3c, 0x2c, 0xd8, 0x00, 0xbd, 0x7c, 0x00, 0xb6, 0x3d,
  0x2d, 0x35, 0x9a, 0x3d, 0x52, 0x02, 0xd1, 0x3d, 0xd7, 0x7c, 0xcc, 0x3d,
  0xac, 0xa0, 0xde, 0x3d, 0x5a, 0x7f, 0xa5, 0x3c, 0xcf, 0x5d, 0x9a, 0x3d,
  0x23, 0xf4, 0x51, 0x3d, 0xe4, 0x2b, 0x98, 0x3d, 0x0c, 0xf3, 0xd8, 0x3d,
  0x4e, 0xd0, 0xa8, 0xbd, 0x7a, 0x12, 0x35, 0x3c, 0x3a, 0xb6, 0x95, 0xbd,
  0xfc, 0x7b, 0xd1, 0xbc, 0xde, 0x13, 0x3d, 0xbc, 0x58, 0x74, 0x87, 0xbd,
  0xd6, 0x5e, 0x31, 0xbd, 0x04, 0x73, 0xd7, 0xbd, 0x84, 0xc3, 0x23, 0x3d,
  0x10, 0xf1, 0xf9, 0xbc, 0xc2, 0xe4, 0xbe, 0x3c, 0xcb, 0x42, 0x02, 0xbd,
  0x3f, 0xbf, 0xb6, 0xbc, 0x6f, 0xe4, 0xa8, 0xbc, 0xe5, 0x62, 0xa6, 0xbd,
  0x0c, 0x96, 0x8c, 0xbd, 0x5e, 0x4c, 0x30, 0xbd, 0xb8, 0x27, 0x1f, 0xbd,
  0xb4, 0x26, 0x50, 0xbc, 0xd5, 0x6f, 0x30, 0xbd, 0x5b, 0xca, 0xdc, 0xbc,
  0xc1, 0x88, 0x9e, 0x3c, 0x24, 0x65, 0x9e, 0x3b, 0x43, 0x69, 0x1e, 0x3d,
  0x41, 0xa0, 0xb0, 0xbc, 0x6c, 0x9a, 0x35, 0x3c, 0x79, 0x4c, 0x25, 0xbd,
  0x85, 0x6a, 0x34, 0xbd, 0x08, 0x51, 0x76, 0xbd, 0x02, 0x92, 0xae, 0xbd,
  0x72, 0xde, 0x91, 0xbd, 0xbb, 0x7f, 0xe2, 0xbc, 0x59, 0x8e, 0x3b, 0xba,
  0x67, 0x6c, 0x1f, 0x3d, 0x38, 0xa5, 0xb9, 0xbd, 0x6e, 0x51, 0x00, 0x3c,
  0xdb, 0x3c, 0x85, 0xbd, 0xcf, 0x96, 0xdd, 0xbd, 0x14, 0xb3, 0xb0, 0xbb,
  0xe5, 0x11, 0x6d, 0xbd, 0x25, 0x40, 0x5c, 0xbd, 0xaa, 0x2d, 0x08, 0xbc,
  0x4b, 0xdc, 0x9e, 0xbc, 0xf5, 0xc8, 0x80, 0x3c, 0x63, 0x4d, 0x96, 0xbd,
  0x11, 0x47, 0xb9, 0x3c, 0x18, 0x26, 0x76, 0xbc, 0x97, 0xfd, 0x35, 0x3b,
  0xd9, 0xcf, 0x74, 0xbd, 0x5d, 0x6a, 0x47, 0xbc, 0xa2, 0x78, 0x6c, 0xbc,
  0x1d, 0x3c, 0x02, 0x3e, 0xb4, 0x04, 0x85, 0xbd, 0x1e, 0x40, 0xbd, 0xbd,
  0x6b, 0x51, 0xca, 0xbd, 0xac, 0x9e, 0x15, 0xbd, 0x48, 0x69, 0xc8, 0xbd,
  0x4e, 0x35, 0x87, 0xbd, 0x83, 0xef, 0x86, 0xbd, 0xa0, 0x5a, 0x4b, 0xbc,
  0x15, 0x46, 0x9e, 0xbd, 0x31, 0xe8, 0x9b, 0x3c, 0x65, 0x72, 0xe2, 0xbd,
  0x2a, 0x13, 0xb9, 0xbd, 0x1e, 0x52, 0x9e, 0x3d, 0xc2, 0x2b, 0xbc, 0xbd,
  0xe4, 0xcc, 0x09, 0x3c, 0x52, 0xd4, 0xef, 0xbc, 0x31, 0xab, 0x11, 0x3c,
  0xea, 0x5d, 0xd4, 0x3d, 0x95, 0x32, 0xf4, 0xbc, 0x85, 0x13, 0xa4, 0xbb,
  0xf8, 0x5c, 0x58, 0xbd, 0x13, 0x09, 0x0c, 0x3c, 0x30, 0xea, 0xce, 0x3d,
  0x8c, 0x6f, 0x05, 0x3e, 0x48, 0x28, 0xb8, 0xbb, 0x0d, 0xd1, 0x80, 0xbd,
  0xe6, 0x8e, 0x81, 0xbd, 0x72, 0x40, 0xcc, 0xbc, 0x6a, 0x1a, 0x8e, 0xbc,
  0x62, 0x74, 0x13, 0xbc, 0xe8, 0xa2, 0x95, 0x3b, 0xf6, 0x3d, 0xc5, 0x3d,
  0x1e, 0xe7, 0xbe, 0xbd, 0xea, 0x1a, 0xb3, 0xbd, 0xfd, 0x78, 0xa8, 0xbd,
  0xe2, 0xd2, 0x82, 0xbb, 0xf4, 0x1d, 0xa5, 0xbd, 0x43, 0xde, 0xd3, 0x3c,
  0x5f, 0x75, 0x0f, 0x3d, 0x0f, 0xb1, 0xc8, 0x3d, 0x38, 0xee, 0xdf, 0x3d,
  0xe8, 0x55, 0xb0, 0x3d, 0x8d, 0xb2, 0xa5, 0x3d, 0xe1, 0x4a, 0xe2, 0xbc,
  0xb3, 0x31, 0x0a, 0xbd, 0x6a, 0xdf, 0x99, 0x3c, 0x20, 0xaa, 0x38, 0x3c,
  0x74, 0x76, 0x82, 0xbd, 0xa3, 0x8b, 0x8f, 0xbd, 0x26, 0x43, 0xad, 0xbd,
  0x54, 0x4d, 0xb3, 0xbd, 0xcf, 0xa6, 0xb5, 0x3d, 0x82, 0xc2, 0xbc, 0xbd,
  0x81, 0x68, 0xa0, 0x3d, 0x35, 0x4f, 0xc1, 0x3b, 0xb4, 0x67, 0x4e, 0xbd,
  0x56, 0x0a, 0xb2, 0xbc, 0xad, 0x4d, 0xc2, 0xbd, 0xef, 0x89, 0x76, 0xbd,
  0xfb, 0xdd, 0xaf, 0x3c, 0xb8, 0x31, 0x13, 0xbc, 0x3a, 0xb4, 0x03, 0xbd,
  0x71, 0xcb, 0xb5, 0xbc, 0xe9, 0x4f, 0x05, 0x3c, 0x17, 0x7b, 0xa3, 0x3c,
  0x09, 0xbe, 0xf4, 0xbd, 0xcd, 0x49, 0x88, 0xbd, 0xff, 0x00, 0x3d, 0xbd,
  0x0c, 0xa7, 0xc0, 0xbd, 0xdb, 0xba, 0x19, 0x3d, 0x66, 0xf0, 0x41, 0xbd,
  0xb8, 0x56, 0x1f, 0x3c, 0x8b, 0x20, 0x2f, 0xbc, 0xdd, 0x4a, 0x1c, 0xbd,
  0xf6, 0x9e, 0xa1, 0x3c, 0x8a, 0x4f, 0xac, 0xbd, 0x1c, 0xeb, 0x24, 0xbd,
  0x55, 0x5f, 0xd5, 0xbd, 0xc0, 0x6b, 0x99, 0xbd, 0xf4, 0x18, 0xa5, 0x3c,
  0x8c, 0x88, 0xaa, 0x3d, 0x19, 0x66, 0x5b, 0xbd, 0x7c, 0x18, 0x9c, 0xbd,
  0xfc, 0x6b, 0x59, 0xbd, 0x1c, 0x3c, 0xe8, 0xbb, 0x35, 0x1c, 0x52, 0xbd,
  0xac, 0x44, 0x19, 0xbd, 0xed, 0xcf, 0xdb, 0x3c, 0x51, 0x8a, 0x8a, 0x3d,
  0x15, 0xcc, 0x0e, 0x3d, 0x35, 0xa0, 0x5d, 0xbd, 0x3f, 0xbd, 0xae, 0x3d,
  0x15, 0x66, 0xa6, 0x3d, 0xd9, 0xdb, 0xd8, 0x3c, 0x8b, 0xbc, 0x93, 0x3c,
  0xee, 0x00, 0xdc, 0x3c, 0xa9, 0xea, 0x9c, 0x3d, 0x38, 0xff, 0x91, 0x3d,
  0xc6, 0xd2, 0xc4, 0x3d, 0x0c, 0xf7, 0xc4, 0x3d, 0xb3, 0x34, 0x3d, 0xba,
  0x1a, 0xa9, 0x82, 0x3d, 0x90, 0x5a, 0xc8, 0x3d, 0x8c, 0xa2, 0xc8, 0x3d,
  0x05, 0xea, 0x1e, 0x3d, 0xcf, 0xd7, 0xc5, 0x3c, 0x37, 0xc2, 0xc4, 0x3d,
  0x7a, 0x3c, 0x6c, 0x3d, 0x47, 0x14, 0x95, 0xbc, 0x38, 0x30, 0x95, 0x39,
  0xa8, 0xbf, 0x60, 0xbd, 0x68, 0x6d, 0x77, 0xbd, 0x26, 0xa6, 0xc5, 0x3d,
  0x74, 0x2d, 0x89, 0x3d, 0x93, 0x0a, 0x61, 0xbd, 0xdc, 0x2b, 0x44, 0xbd,
  0xbe, 0x21, 0xe0, 0xbd, 0x79, 0x1b, 0x4d, 0x3d, 0x97, 0xef, 0x9a, 0x3d,
  0xc8, 0x4c, 0xa8, 0x3c, 0x92, 0x74, 0x12, 0x3d, 0x1f, 0x00, 0x10, 0x3d,
  0xc7, 0x64, 0xc9, 0x3d, 0x58, 0x50, 0x5f, 0x3d, 0x56, 0xd3, 0x85, 0x3c,
  0x01, 0x14, 0x28, 0x3d, 0xc6, 0xe6, 0x9d, 0xbd, 0x11, 0x75, 0xc7, 0xbc,
  0xfe, 0xe7, 0x96, 0x3d, 0x71, 0x26, 0x48, 0x3d, 0xad, 0xf6, 0x8e, 0xbd,
  0xe4, 0x9f, 0x88, 0x3d, 0x5a, 0x4d, 0x13, 0xbd, 0x60, 0xd7, 0x89, 0x3c,
  0x9c, 0xe2, 0x8e, 0x3d, 0xfc, 0x68, 0x49, 0x3d, 0xf6, 0xb5, 0x57, 0xbc,
  0x5e, 0xce, 0xf7, 0x3a, 0xf8, 0xd6, 0xd9, 0x3d, 0x2c, 0xa3, 0x4a, 0x3d,
  0x8a, 0xce, 0xd4, 0xba, 0xe6, 0x77, 0x98, 0x3d, 0x64, 0x11, 0xee, 0xbc,
  0x40, 0xe3, 0x1a, 0xbc, 0x3e, 0x69, 0x1d, 0x3d, 0x7e, 0x16, 0xbd, 0x3d,
  0x31, 0xf6, 0x93, 0xbb, 0x7f, 0x6e, 0x8b, 0xbb, 0x9b, 0x6a, 0xa0, 0xbb,
  0x54, 0x3f, 0x85, 0xbb, 0xe1, 0xfc, 0x5e, 0x3c, 0x04, 0x7a, 0x07, 0x3d,
  0x5c, 0x84, 0xa0, 0x3d, 0x0b, 0x3f, 0xb6, 0xbb, 0x60, 0x00, 0xc8, 0x3d,
  0xaa, 0xa9, 0x32, 0x3d, 0x33, 0x2d, 0x77, 0xbc, 0xd2, 0xf7, 0x99, 0x3c,
  0x90, 0xd6, 0x17, 0x3d, 0x78, 0x1c, 0x13, 0xbd, 0x1f, 0x11, 0xb4, 0x3d,
  0x9a, 0xa8, 0x11, 0x3d, 0x76, 0xca, 0x4f, 0x3d, 0xb0, 0x29, 0xaa, 0x3d,
  0x90, 0x30, 0x51, 0x3d, 0x3f, 0x7b, 0x4a, 0xbd, 0xfe, 0x0d, 0x6e, 0xbd,
  0xf7, 0xb7, 0xab, 0xbd, 0xb9, 0x1d, 0x87, 0xbd, 0x3f, 0xe1, 0x06, 0x3d,
  0x29, 0xc1, 0xbd, 0xbd, 0xe1, 0xae, 0xd5, 0x3a, 0x4f, 0x29, 0xaf, 0xbc,
  0xf7, 0xb5, 0x58, 0x3d, 0x77, 0x56, 0x8c, 0x3d, 0xb6, 0xcd, 0x9e, 0x3d,
  0xa8, 0x36, 0xfa, 0xbc, 0xd1, 0x5d, 0x36, 0xbd, 0x7b, 0xe7, 0x4e, 0x3d,
  0x19, 0xd6, 0x4c, 0xbc, 0x19, 0xa4, 0xa3, 0x3d, 0xcb, 0x9a, 0xd8, 0xbd,
  0xdd, 0xf8, 0xa2, 0x3d, 0x15, 0xad, 0x0c, 0xbd, 0xa4, 0xd2, 0xb8, 0xbd,
  0xcb, 0x93, 0x4b, 0xbd, 0x6e, 0x61, 0x99, 0xbd, 0x4d, 0xcf, 0x72, 0xbd,
  0x00, 0xb5, 0x17, 0x3d, 0x6a, 0x92, 0x5d, 0x3d, 0xb8, 0xc1, 0x8a, 0x3c,
  0x59, 0x32, 0xd4, 0xbc, 0x63, 0xce, 0x31, 0xbd, 0xdd, 0xcc, 0x90, 0xbd,
  0x91, 0x54, 0xe0, 0x3d, 0x24, 0xeb, 0xd3, 0xbc, 0xad, 0x69, 0x0f, 0xbd,
  0x3a, 0x60, 0x10, 0x3d, 0xe3, 0xfb, 0xda, 0x3c, 0xe9, 0xdd, 0xa8, 0x3d,
  0xe2, 0x7a, 0x6f, 0x3c, 0xd9, 0xff, 0xd1, 0x3d, 0x43, 0x01, 0x76, 0x3c,
  0x27, 0x54, 0xe0, 0x3d, 0x25, 0xba, 0xe6, 0x3d, 0x09, 0x11, 0x71, 0xbc,
  0x1d, 0x8b, 0x52, 0x3c, 0xe4, 0x92, 0x16, 0xbd, 0x7c, 0x29, 0x91, 0xbd,
  0x90, 0x13, 0xa3, 0x3d, 0x56, 0xf4, 0xcc, 0xbd, 0x63, 0xa6, 0xd2, 0xbc,
  0x02, 0xc4, 0xdc, 0xbd, 0xcf, 0xf9, 0xac, 0xbd, 0xde, 0x50, 0xb1, 0xbd,
  0x64, 0x91, 0x90, 0xbd, 0xc6, 0x5a, 0xe1, 0xbd, 0xb5, 0x0e, 0xbe, 0xbd,
  0xc7, 0xa6, 0xd8, 0xbd, 0xd1, 0x0e, 0xdb, 0xbd, 0x5a, 0x1a, 0x14, 0xbe,
  0x99, 0x5f, 0x96, 0xbd, 0x9c, 0x79, 0xac, 0xbc, 0x0d, 0x48, 0x80, 0x3d,
  0xad, 0xae, 0x89, 0xbd, 0x71, 0x9a, 0xda, 0xbd, 0xba, 0xbd, 0xbd, 0xbd,
  0xff, 0x0d, 0x73, 0x3d, 0x76, 0x1d, 0x21, 0xbc, 0xde, 0xae, 0x06, 0xbd,
  0x0a, 0x78, 0x3b, 0xbc, 0x9e, 0x42, 0xc6, 0xbd, 0x91, 0xfd, 0x8b, 0x3c,
  0x07, 0x4e, 0x1f, 0x3d, 0xc8, 0x96, 0x49, 0x3d, 0xcb, 0xde, 0x5e, 0xbd,
  0x0a, 0xcb, 0x23, 0xbd, 0xb8, 0x78, 0x2d, 0x3d, 0x4c, 0xa5, 0x7e, 0x3d,
  0xc6, 0xf9, 0xdd, 0xbb, 0x80, 0xe9, 0x71, 0x3d, 0xd5, 0x81, 0x40, 0x3c,
  0x29, 0x6b, 0x87, 0xbd, 0x10, 0x14, 0x19, 0xbd, 0x69, 0x5e, 0xfd, 0xbd,
  0x8a, 0x00, 0x8a, 0xbd, 0xbf, 0x00, 0xe3, 0xbd, 0xe3, 0x0f, 0x80, 0xbd,
  0x1b, 0xa6, 0xc6, 0xbd, 0x5f, 0xfc, 0xa1, 0xbd, 0x53, 0x9c, 0x52, 0xbc,
  0x6f, 0x0f, 0xa8, 0x3c, 0xc8, 0xfb, 0xe8, 0xbc, 0x32, 0x0e, 0x4d, 0xbd,
  0xd4, 0xf0, 0xe0, 0xbc, 0xce, 0x7a, 0x51, 0xbc, 0xe6, 0x15, 0xc2, 0xbd,
  0xd8, 0x28, 0x9b, 0xbd, 0x5f, 0xaf, 0xcc, 0xbd, 0x90, 0x45, 0x1b, 0xbc,
  0x2a, 0xf9, 0x22, 0xbd, 0x5d, 0xb0, 0xc2, 0xbd, 0x2d, 0xfc, 0x83, 0x3c,
  0x2f, 0x54, 0x89, 0x3d, 0x26, 0xdc, 0x86, 0xbd, 0x40, 0x4a, 0x28, 0xbc,
  0xd1, 0xb3, 0xff, 0x3a, 0x1a, 0xa3, 0x31, 0xbd, 0x95, 0x7b, 0x2d, 0xbd,
  0xc0, 0x2a, 0x9d, 0xbc, 0xa8, 0x89, 0x17, 0x3d, 0x60, 0x64, 0x1f, 0x3c,
  0xdc, 0x61, 0x05, 0x3b, 0x31, 0x41, 0xb5, 0x3d, 0xff, 0x1e, 0x17, 0x3d,
  0x40, 0xd4, 0x8a, 0xbd, 0xab, 0x42, 0x07, 0x3e, 0xf7, 0x83, 0x02, 0x3e,
  0x55, 0x4d, 0xc7, 0x3d, 0x3d, 0xdf, 0xfb, 0x3d, 0x3d, 0x5c, 0xdd, 0x3d,
  0x36, 0x77, 0xf3, 0x3d, 0x7b, 0x1a, 0xc6, 0x3d, 0x89, 0x6a, 0xaa, 0xbd,
  0xc5, 0xc4, 0xbe, 0xbd, 0x75, 0xa1, 0x2d, 0xbc, 0xd6, 0xec, 0x95, 0x3d,
  0x0a, 0xc6, 0xaf, 0x3d, 0xb3, 0x82, 0x55, 0x3c, 0x1d, 0x33, 0xba, 0xbc,
  0xfc, 0x2b, 0x9e, 0x3c, 0x6b, 0x78, 0xc4, 0x3d, 0x41, 0x0d, 0xdc, 0x3d,
  0x69, 0x04, 0x32, 0x3d, 0xe5, 0x3e, 0xb6, 0xbc, 0x08, 0x8e, 0xc5, 0x3d,
  0xb4, 0xd2, 0xf0, 0x3c, 0x53, 0x94, 0x8e, 0xbd, 0x92, 0x7b, 0x4d, 0xbd,
  0x95, 0x75, 0x1a, 0x3c, 0x51, 0x7e, 0xa8, 0xbd, 0x3d, 0x03, 0xb3, 0x3d,
  0xc1, 0x8a, 0xd6, 0xbc, 0xc7, 0xee, 0xe0, 0xbb, 0x8f, 0x90, 0x4d, 0xbd,
  0xac, 0x9a, 0xb0, 0xbd, 0xa5, 0x24, 0xe4, 0xbb, 0xc9, 0x69, 0x74, 0xbd,
  0x25, 0xaa, 0x9c, 0xbd, 0x14, 0x81, 0x95, 0x3c, 0xdf, 0x12, 0xcf, 0xbc,
  0x0f, 0x2f, 0x7b, 0xbd, 0x66, 0x07, 0xf8, 0xbd, 0x1f, 0x29, 0xa0, 0xbd,
  0x9e, 0x97, 0xa0, 0xbd, 0x4e, 0xf2, 0x66, 0xbc, 0x3c, 0x65, 0xd7, 0xbd,
  0x60, 0x60, 0x8c, 0xbb, 0x42, 0xb1, 0x8b, 0x3c, 0xee, 0x21, 0xa5, 0xbc,
  0xd0, 0xed, 0xcd, 0xbd, 0xfd, 0xed, 0xb8, 0xbc, 0x7e, 0xc4, 0x81, 0xbd,
  0xd7, 0xfb, 0x8e, 0xbc, 0xca, 0x18, 0x4c, 0xbd, 0x07, 0x49, 0xa8, 0xbb,
  0xfc, 0xe3, 0x32, 0xbd, 0xb3, 0xe4, 0x13, 0xbd, 0x7d, 0x01, 0x17, 0xbd,
  0x09, 0x4c, 0xc0, 0xbd, 0xae, 0xea, 0xea, 0xbc, 0x75, 0x0d, 0x8d, 0x3c,
  0x79, 0x07, 0xbb, 0x3b, 0x7d, 0xa5, 0xb7, 0xbc, 0x84, 0xbf, 0x19, 0xbb,
  0xb4, 0xc9, 0x3a, 0x3d, 0x8e, 0xa1, 0x2d, 0xbd, 0xcf, 0x67, 0x31, 0xbd,
  0x6c, 0x97, 0xae, 0x3c, 0x17, 0x95, 0xe6, 0xbc, 0xae, 0xed, 0x0b, 0xbd,
  0xd6, 0xcc, 0x35, 0xbd, 0x6e, 0x64, 0x24, 0xbd, 0xd4, 0x4c, 0x7e, 0x3c,
  0x2f, 0x26, 0x45, 0xbd, 0xe0, 0xc0, 0xed, 0xbc, 0xae, 0x04, 0x66, 0xbd,
  0x5d, 0x51, 0x29, 0x3c, 0x80, 0x53, 0xce, 0xbc, 0x1c, 0x35, 0xd8, 0xbd,
  0x09, 0xb0, 0x51, 0x3d, 0xf6, 0x82, 0xa0, 0x3a, 0x0a, 0x19, 0x30, 0xbd,
  0xfb, 0x17, 0xaa, 0x3c, 0x3f, 0x8b, 0x7e, 0xbd, 0x30, 0x09, 0x84, 0xbd,
  0x13, 0xc8, 0x89, 0x3b, 0x71, 0x3d, 0x19, 0xbd, 0x4a, 0xd8, 0xd5, 0xbc,
  0x21, 0xe4, 0x64, 0xbd, 0x04, 0x44, 0xb7, 0x3b, 0xc3, 0x90, 0xd0, 0x3d,
  0x0a, 0xff, 0x1f, 0xbd, 0x1e, 0x2b, 0xa9, 0xbd, 0xf9, 0x67, 0xf6, 0xbc,
  0x6b, 0x7e, 0xac, 0xbd, 0x49, 0x53, 0x81, 0xbc, 0x23, 0x84, 0x10, 0xbc,
  0x21, 0x6c, 0x80, 0x3d, 0x79, 0x21, 0x7e, 0xbd, 0x78, 0xc9, 0x86, 0xbb,
  0x65, 0xdc, 0x8d, 0x3b, 0x61, 0xd0, 0x2a, 0xbb, 0xbd, 0x87, 0x57, 0xbd,
  0x69, 0x5a, 0x0b, 0x3d, 0xda, 0x57, 0xaf, 0xbd, 0x12, 0x8c, 0xc8, 0x3d,
  0x2c, 0x35, 0xaa, 0x3d, 0xfe, 0xe6, 0xa9, 0x3d, 0x77, 0xe0, 0xb7, 0x3d,
  0xee, 0xe3, 0x45, 0x3d, 0xa4, 0x7d, 0x48, 0x3d, 0xd1, 0x06, 0xc9, 0x3c,
  0x59, 0x89, 0x3a, 0xbc, 0xc3, 0x70, 0xb3, 0x3d, 0x7d, 0x78, 0xbd, 0x3d,
  0x6c, 0xaf, 0x74, 0x3d, 0xa9, 0x49, 0x00, 0x3d, 0xad, 0x1b, 0xc1, 0xbd,
  0x97, 0x59, 0xe0, 0x3c, 0xb6, 0xf8, 0x4e, 0x3d, 0x51, 0x17, 0xbd, 0xbc,
  0x7a, 0x1c, 0xc6, 0x3d, 0xad, 0x14, 0x2d, 0x3d, 0xae, 0x5d, 0x70, 0x3d,
  0x81, 0xb2, 0xd5, 0x3d, 0x93, 0x23, 0x90, 0x3d, 0x87, 0x2b, 0x42, 0xbb,
  0xc5, 0x50, 0x60, 0x3d, 0x5f, 0xde, 0x85, 0x3d, 0xaa, 0x96, 0x6d, 0x3c,
  0xd8, 0x99, 0x9d, 0xbd, 0xb4, 0xc5, 0x18, 0xbd, 0x68, 0x59, 0x0d, 0xbd,
  0x8a, 0x31, 0x7e, 0x3c, 0x31, 0xcf, 0xbc, 0xbc, 0x44, 0x39, 0x87, 0x3d,
  0x97, 0x71, 0xbc, 0x3d, 0xf8, 0xa2, 0x35, 0xbd, 0x8d, 0xdd, 0x98, 0xbb,
  0xce, 0xe3, 0x4c, 0xbc, 0x16, 0xa8, 0x0c, 0xbd, 0x31, 0x91, 0x8f, 0x3d,
  0xa0, 0xa9, 0xb9, 0xbd, 0xb3, 0xb8, 0x9c, 0xbd, 0x20, 0x5c, 0x96, 0xbd,
  0x71, 0x95, 0x98, 0x3c, 0xff, 0xcb, 0x13, 0xbd, 0x13, 0x1e, 0x9a, 0xbc,
  0x3a, 0x5b, 0xd7, 0x3d, 0x41, 0x39, 0x88, 0x3d, 0xcc, 0x67, 0x91, 0x3d,
  0x63, 0xf9, 0x9b, 0x3d, 0x18, 0xa2, 0xfa, 0x3c, 0xe6, 0x3c, 0x00, 0x3d,
  0x85, 0xcb, 0x6b, 0xbd, 0x26, 0x4c, 0x82, 0xbc, 0x9e, 0xe8, 0xcd, 0xbd,
  0x53, 0x09, 0xc0, 0xbc, 0x8a, 0x96, 0xfd, 0xbc, 0xa8, 0xfc, 0xf1, 0xbc,
  0xfe, 0x5f, 0x0f, 0xbd, 0x71, 0x39, 0x68, 0xbd, 0xae, 0x70, 0x4f, 0xbd,
  0x37, 0x4e, 0x70, 0xbd, 0x07, 0x36, 0x11, 0xbd, 0x28, 0x3a, 0x75, 0xbd,
  0xd8, 0xeb, 0x0f, 0x3d, 0x1e, 0x50, 0x0a, 0xbc, 0x80, 0x83, 0x00, 0xbe,
  0x29, 0xf5, 0x00, 0xbe, 0xf8, 0x7a, 0x8f, 0xbd, 0xda, 0x7b, 0x8d, 0x3d,
  0x83, 0x34, 0xd3, 0x3d, 0x70, 0x3d, 0x23, 0x3d, 0x74, 0xa2, 0x8d, 0x3d,
  0xa2, 0xda, 0x00, 0xbd, 0x6d, 0x7d, 0x45, 0xbc, 0x07, 0x9c, 0x54, 0xbc,
  0x00, 0x50, 0xce, 0xbd, 0x60, 0x45, 0xfb, 0x3c, 0xad, 0x7d, 0xe9, 0x3c,
  0x1d, 0x99, 0x25, 0x3d, 0x0a, 0x5f, 0xa8, 0xbd, 0xcb, 0x6b, 0x44, 0xbd,
  0x2d, 0x1b, 0xce, 0x3b, 0xa9, 0xed, 0xec, 0x3b, 0x91, 0xcc, 0x19, 0x3c,
  0xf3, 0xb1, 0xb1, 0xbd, 0xaf, 0x5c, 0xca, 0x3c, 0xd5, 0xd2, 0x99, 0xbd,
  0x6d, 0x58, 0xd2, 0xbc, 0x22, 0xf1, 0x14, 0x3d, 0x55, 0xc1, 0xe3, 0xbc,
  0xdf, 0x9e, 0xa0, 0xbd, 0xc8, 0x3c, 0xfb, 0xbd, 0x99, 0x30, 0xbe, 0xbb,
  0x73, 0x29, 0x2f, 0x3d, 0xf8, 0x05, 0x47, 0x3d, 0x23, 0xee, 0xaf, 0xbb,
  0xa4, 0xc2, 0x98, 0xbd, 0x33, 0x7e, 0x9d, 0xbd, 0x21, 0xc7, 0xa3, 0x3d,
  0xd4, 0x40, 0x9f, 0xbb, 0xe9, 0xc8, 0x92, 0x3b, 0x16, 0xab, 0xa6, 0x3d,
  0x43, 0x06, 0x3a, 0xbc, 0x50, 0x17, 0xb0, 0x3c, 0xfd, 0x22, 0xe7, 0xbc,
  0xd2, 0x90, 0xee, 0x3c, 0xdc, 0xc5, 0x8f, 0xbc, 0x1f, 0x0e, 0x62, 0xbd,
  0x43, 0x3b, 0xfc, 0xbc, 0x31, 0x0e, 0x51, 0x3d, 0xfd, 0x65, 0xb8, 0x39,
  0x34, 0x3e, 0x67, 0x3d, 0xc5, 0xc0, 0x94, 0x3c, 0x94, 0x94, 0x45, 0xbc,
  0x48, 0xe5, 0xc5, 0x38, 0x15, 0x08, 0x94, 0xbc, 0x47, 0x66, 0xa4, 0x3c,
  0x74, 0x3d, 0x88, 0x3c, 0x4a, 0x32, 0x43, 0xbd, 0xfd, 0x2d, 0x79, 0xbd,
  0x1f, 0xa0, 0xb5, 0x3d, 0x73, 0x89, 0x1d, 0x3d, 0x9a, 0xfa, 0x12, 0x3d,
  0x1d, 0x0c, 0xc4, 0xbc, 0xad, 0x8b, 0x81, 0x3c, 0x50, 0xf1, 0x10, 0xbd,
  0x7e, 0x8b, 0x75, 0xbd, 0xe3, 0x87, 0xd9, 0xbd, 0xe8, 0x52, 0x4b, 0xbd,
  0x30, 0x83, 0x83, 0xbc, 0xd9, 0x8c, 0xa2, 0x3d, 0xda, 0xb9, 0x5d, 0x3d,
  0x2c, 0xb8, 0x9b, 0x3d, 0x4a, 0x8f, 0x98, 0x3d, 0x06, 0xac, 0xdd, 0xba,
  0x47, 0x14, 0x65, 0xbc, 0x4c, 0x66, 0x40, 0xbd, 0x80, 0x71, 0x5f, 0xbd,
  0x55, 0xd6, 0x76, 0xbd, 0xd3, 0x27, 0x9e, 0xbd, 0xeb, 0xc2, 0xbc, 0xbd,
  0x13, 0xd0, 0x9a, 0xbc, 0xc9, 0xda, 0xd2, 0x3d, 0xf2, 0x4c, 0x37, 0x3d,
  0x90, 0x6b, 0x77, 0x3d, 0x9d, 0x72, 0x7b, 0xbd, 0x66, 0x71, 0xce, 0xbd,
  0xaa, 0x9e, 0xa5, 0xbd, 0x0e, 0xab, 0x4c, 0x3c, 0x74, 0x8f, 0xeb, 0xbb,
  0xdd, 0xa0, 0x89, 0xbd, 0x13, 0x7d, 0x0f, 0x3b, 0x78, 0x17, 0x8e, 0xbb,
  0xe7, 0xee, 0x30, 0xbd, 0x23, 0x21, 0xd7, 0x3c, 0xf5, 0x43, 0x90, 0xbd,
  0x16, 0x6b, 0x08, 0x3d, 0xed, 0xeb, 0xb6, 0xbd, 0x1a, 0x04, 0x9b, 0x3d,
  0x3d, 0x47, 0xf5, 0xbc, 0x84, 0x43, 0x64, 0xbd, 0x17, 0x94, 0xab, 0xbd,
  0x15, 0x10, 0xc4, 0xbd, 0x45, 0xf7, 0xfd, 0xbd, 0xe5, 0x1d, 0xdb, 0xbd,
  0xb3, 0x8c, 0x86, 0x3c, 0xf1, 0x39, 0x7e, 0x3d, 0x14, 0x2f, 0x2b, 0x3c,
  0x84, 0xa3, 0x89, 0xbd, 0x04, 0xdd, 0x92, 0xbc, 0x76, 0xdf, 0x2d, 0xbd,
  0xe7, 0xdb, 0xdc, 0xbc, 0x70, 0xc8, 0x20, 0xbd, 0x50, 0x15, 0xce, 0xbc,
  0xc3, 0xee, 0x8c, 0xbd, 0x24, 0x51, 0x3b, 0xbd, 0xac, 0x68, 0xac, 0xbd,
  0xcf, 0xf9, 0x79, 0x3b, 0x4a, 0xd9, 0x8c, 0xbd, 0x0f, 0x80, 0x85, 0xbd,
  0x8c, 0x93, 0xfa, 0xbb, 0x23, 0x3f, 0x3f, 0x3d, 0x7a, 0xd1, 0xd3, 0x3d,
  0x3d, 0x43, 0x8d, 0x3d, 0x28, 0xfe, 0x46, 0xbd, 0x6c, 0x84, 0xa7, 0x3d,
  0x60, 0x61, 0xb0, 0x3d, 0x45, 0x04, 0x23, 0x3d, 0xf0, 0x55, 0xcb, 0x3b,
  0xab, 0x71, 0xa8, 0x3c, 0x1e, 0x75, 0x86, 0xbc, 0x39, 0x71, 0x85, 0x3b,
  0x97, 0xaa, 0xb4, 0xbc, 0x8f, 0x5f, 0xdc, 0xbd, 0x52, 0xc0, 0xd2, 0xbd,
  0x93, 0x56, 0x0b, 0xbe, 0x76, 0xb7, 0xd0, 0xbd, 0x6e, 0x56, 0xf7, 0xbc,
  0x9d, 0x8b, 0xaf, 0x3b, 0xd1, 0x33, 0xaf, 0xbd, 0x48, 0x21, 0xb9, 0xbd,
  0x68, 0xfa, 0xab, 0x3b, 0x49, 0x99, 0xf5, 0xbc, 0xf6, 0xf8, 0x04, 0xbd,
  0x2c, 0xbc, 0x16, 0xbc, 0x2c, 0x24, 0x43, 0xbd, 0x8b, 0x54, 0x95, 0xbd,
  0x44, 0x26, 0xc1, 0xbd, 0x59, 0xf9, 0x81, 0xbc, 0x48, 0xca, 0x54, 0xbd,
  0x0d, 0xa0, 0xd6, 0xbd, 0x8e, 0x44, 0x8b, 0xbd, 0x6e, 0x41, 0x32, 0xbc,
  0x76, 0xb8, 0x17, 0x3d, 0xe4, 0x2c, 0x08, 0xbd, 0xb4, 0xf1, 0x4c, 0x3c,
  0x84, 0x84, 0xec, 0xbc, 0x4e, 0x5a, 0x86, 0xbd, 0x66, 0x9c, 0x68, 0xbd,
  0x9e, 0xc2, 0xf5, 0x3b, 0x22, 0x54, 0x01, 0xbd, 0xf9, 0x87, 0x1b, 0x3d,
  0x3e, 0xe4, 0x04, 0xbc, 0xae, 0x5c, 0xbb, 0xbd, 0x39, 0x90, 0x65, 0xbc,
  0xe9, 0x61, 0x9c, 0xbd, 0x1b, 0x79, 0x42, 0x3d, 0x0f, 0x40, 0x12, 0x3d,
  0xcf, 0x00, 0x4c, 0xbd, 0x92, 0x47, 0xbc, 0x3c, 0x88, 0x8e, 0x96, 0xbd,
  0x57, 0x95, 0x00, 0x3d, 0x35, 0xff, 0x36, 0xbd, 0xca, 0x50, 0x8e, 0x3d,
  0x91, 0x80, 0xc0, 0x3d, 0xf7, 0xaf, 0xac, 0x3d, 0xd8, 0x3e, 0x64, 0x3d,
  0xb4, 0xed, 0xf9, 0xbc, 0x17, 0x65, 0xb1, 0xbc, 0x25, 0xb3, 0x1c, 0x3d,
  0x5e, 0xaf, 0x3d, 0xbd, 0x59, 0xb6, 0x4a, 0xbd, 0xbb, 0xa4, 0xb0, 0xbc,
  0x84, 0x30, 0x95, 0xbd, 0xdd, 0xa4, 0x8a, 0xbd, 0xc5, 0xc0, 0x4b, 0xbd,
  0x40, 0x0b, 0x96, 0x3d, 0xb8, 0x1a, 0x42, 0x3d, 0x83, 0xbd, 0x24, 0xbc,
  0x5b, 0x71, 0x0c, 0x3d, 0x7e, 0xad, 0x1b, 0xbd, 0xef, 0x2d, 0x7f, 0x3b,
  0xa3, 0xdb, 0x9c, 0xbc, 0xc2, 0x65, 0xf5, 0x3c, 0x79, 0xc7, 0x35, 0xbd,
  0x61, 0xb2, 0x83, 0xbd, 0xe5, 0xe6, 0x6f, 0xbd, 0x1e, 0xea, 0x35, 0xbb,
  0x31, 0xd8, 0x07, 0xbc, 0x39, 0xef, 0xb6, 0x3d, 0xf0, 0xb6, 0x0f, 0x3c,
  0x69, 0x9a, 0x86, 0x3d, 0xcb, 0xdd, 0x84, 0xbd, 0x2a, 0xc8, 0x1e, 0x3d,
  0x03, 0x8e, 0x1d, 0xbd, 0x59, 0x9d, 0x3f, 0xbd, 0x37, 0x97, 0x40, 0x3b,
  0x6a, 0x7c, 0xb8, 0xbd, 0xc3, 0x69, 0x6e, 0x3d, 0x5b, 0x89, 0x0f, 0x3d,
  0xe8, 0x97, 0x1e, 0xbb, 0x17, 0x7c, 0xc1, 0x3d, 0x04, 0x2a, 0xb0, 0x3d,
  0xe0, 0x25, 0x8a, 0x3d, 0x13, 0x12, 0x18, 0xbd, 0x27, 0xfd, 0x32, 0x3d,
  0x80, 0xb6, 0x62, 0xbd, 0xc9, 0x2c, 0xad, 0xbd, 0xb6, 0xa9, 0x6f, 0x3d,
  0x06, 0xef, 0x47, 0xbd, 0x82, 0x66, 0xd7, 0xbb, 0x03, 0xf5, 0x51, 0x3c,
  0xc3, 0x88, 0xd4, 0x3d, 0xe6, 0x2d, 0xe6, 0x3d, 0x2c, 0x6a, 0x3a, 0x3c,
  0xd7, 0x32, 0x8c, 0x3d, 0x09, 0x5b, 0xc2, 0xbc, 0x90, 0xbd, 0x97, 0x3d,
  0x23, 0x68, 0x01, 0x3e, 0xd2, 0x1d, 0x8f, 0xbc, 0xb2, 0xae, 0x30, 0x3d,
  0xf0, 0xdb, 0x42, 0x3d, 0xf5, 0xbe, 0x0a, 0x3d, 0xfe, 0xa3, 0x61, 0x3d,
  0xbc, 0xa7, 0x93, 0xbd, 0x9a, 0x1c, 0x54, 0x3b, 0x70, 0xd1, 0x92, 0x3c,
  0x4b, 0xa8, 0x85, 0xbd, 0x19, 0x90, 0x96, 0x3d, 0xc1, 0x56, 0xd3, 0x3d,
  0x9e, 0x93, 0x21, 0xbc, 0x63, 0xf7, 0x62, 0xbc, 0x6c, 0x20, 0xe9, 0xbc,
  0x0c, 0x84, 0x12, 0x3d, 0x7f, 0xb0, 0xd6, 0xbd, 0xda, 0xdf, 0x6e, 0x3c,
  0x30, 0xfb, 0x94, 0xbd, 0x6e, 0x10, 0x1e, 0x3d, 0x98, 0xc7, 0x8f, 0xbd,
  0x1b, 0x21, 0xb4, 0xbc, 0xf2, 0xa3, 0xf0, 0x3b, 0x9b, 0xb3, 0x6f, 0x3d,
  0x2b, 0x98, 0x7c, 0x3d, 0x97, 0xb0, 0x74, 0x3d, 0x2b, 0xf8, 0x8c, 0x3c,
  0xb3, 0x5d, 0xb5, 0xbd, 0x55, 0x8c, 0x9a, 0xbc, 0xe6, 0x7a, 0x31, 0x3d,
  0x59, 0x98, 0x14, 0x3d, 0xc0, 0x90, 0x82, 0xbd, 0x13, 0xda, 0xc4, 0x3c,
  0xe3, 0x18, 0x91, 0xba, 0xf2, 0xe7, 0x59, 0xbd, 0x9c, 0xc9, 0x71, 0x3d,
  0xcf, 0x7d, 0xd8, 0x3c, 0x6e, 0xc7, 0x1f, 0x3d, 0x4c, 0x86, 0xf0, 0xbb,
  0x77, 0xdc, 0x3b, 0xbd, 0x72, 0x04, 0x8c, 0x3d, 0x25, 0xb2, 0x11, 0x3d,
  0x03, 0x04, 0xa8, 0xbd, 0xe3, 0x27, 0x16, 0xbb, 0x76, 0x08, 0x67, 0x3c,
  0x00, 0x11, 0xdb, 0xbc, 0x5e, 0x7d, 0xd6, 0xbc, 0x78, 0xdf, 0x02, 0x3d,
  0xcb, 0xb5, 0x36, 0x3d, 0xb4, 0x29, 0xf7, 0x3c, 0xe1, 0x30, 0x61, 0xbd,
  0xcb, 0xf3, 0xdf, 0xbd, 0x6e, 0xd9, 0xc0, 0x3d, 0xb2, 0xe4, 0xe9, 0xbc,
  0x85, 0x1a, 0x8d, 0x3d, 0x0f, 0x91, 0xbe, 0x3d, 0x35, 0xcd, 0x92, 0x3c,
  0x5f, 0xa5, 0x25, 0x3d, 0x74, 0xa0, 0x1a, 0x3c, 0x4f, 0x51, 0x17, 0xbd,
  0x45, 0x35, 0x5e, 0x3d, 0x08, 0xd7, 0xb5, 0xbc, 0xc8, 0x2a, 0x5a, 0xbd,
  0x07, 0xff, 0x57, 0xbd, 0x07, 0x12, 0x09, 0xba, 0xca, 0x8e, 0xd8, 0xbd,
  0x31, 0x54, 0xf0, 0x3d, 0xe8, 0x47, 0xef, 0xbc, 0x3c, 0x4e, 0x22, 0xbd,
  0x67, 0xfe, 0x19, 0x3d, 0x9f, 0xb9, 0xe3, 0x3d, 0xad, 0x6a, 0x01, 0xbc,
  0x1a, 0x76, 0x60, 0xbc, 0x35, 0xd4, 0xb5, 0x3d, 0x7f, 0x0b, 0xab, 0xbd,
  0x5f, 0x7c, 0xd4, 0xbc, 0x7a, 0x4b, 0x84, 0x3d, 0x9b, 0xf1, 0x2e, 0x3c,
  0xa0, 0x2f, 0xa0, 0x3d, 0x44, 0x7a, 0x4e, 0xbd, 0x18, 0x0a, 0xce, 0x3d,
  0x82, 0xf1, 0xfc, 0x3d, 0xde, 0xab, 0x87, 0x3d, 0xce, 0xe7, 0x1c, 0x3d,
  0xd7, 0x56, 0x19, 0x3c, 0xa5, 0xa8, 0x0a, 0xbd, 0x87, 0xf9, 0x78, 0xbd,
  0x45, 0xee, 0x80, 0x3b, 0x08, 0xba, 0x82, 0xbd, 0x04, 0x60, 0xe9, 0xbc,
  0x5f, 0xbd, 0x85, 0xbd, 0xae, 0xb4, 0x4c, 0x3c, 0xa0, 0xa3, 0xe3, 0x3c,
  0xe6, 0xbc, 0xf0, 0x3c, 0x6f, 0x83, 0xba, 0x3d, 0x57, 0x71, 0x9b, 0x3d,
  0x4b, 0x73, 0x09, 0x3d, 0x2c, 0x55, 0x00, 0xbd, 0x4a, 0x70, 0xc0, 0x3d,
  0xf6, 0x4c, 0xa9, 0x3d, 0x1d, 0xd7, 0xcc, 0xbb, 0x90, 0xb0, 0xe4, 0x3b,
  0x96, 0x95, 0x63, 0xbd, 0x6e, 0xdd, 0x5d, 0xbd, 0x1d, 0x3c, 0x60, 0xbd,
  0xee, 0x7d, 0xa3, 0xbd, 0x98, 0x5d, 0x44, 0xbc, 0x40, 0x56, 0xe6, 0xbd,
  0xcf, 0x0b, 0xa4, 0xbd, 0x79, 0x26, 0x75, 0xbd, 0x46, 0x60, 0x71, 0x3b,
  0x70, 0x8a, 0x85, 0x3c, 0x8c, 0xb2, 0xcd, 0xbd, 0x76, 0x98, 0xc2, 0xbd,
  0xb5, 0x51, 0x2d, 0xbd, 0x69, 0x9b, 0xc1, 0xbd, 0x0c, 0x19, 0x18, 0xbe,
  0x60, 0xeb, 0x62, 0x3d, 0xdd, 0x8f, 0x87, 0xbd, 0x73, 0xf2, 0xfc, 0x3b,
  0x9b, 0x0c, 0x86, 0x3d, 0x59, 0x9d, 0x85, 0x3d, 0xe9, 0xf8, 0xad, 0xbd,
  0x79, 0x38, 0x6d, 0x3d, 0x29, 0x14, 0x99, 0x3c, 0x9d, 0x5b, 0xde, 0x3d,
  0x57, 0xcb, 0xc8, 0x3d, 0x51, 0x6d, 0xfb, 0x3c, 0x5d, 0x6c, 0xbd, 0x3c,
  0x3a, 0xd1, 0x76, 0x3c, 0x8b, 0x9c, 0xb1, 0x3c, 0xa5, 0x4a, 0x61, 0xbd,
  0x69, 0x32, 0xb2, 0x3c, 0x6a, 0x08, 0x32, 0x3c, 0x58, 0x57, 0x61, 0x3d,
  0x52, 0x43, 0x80, 0x3d, 0x5c, 0xe9, 0x71, 0x3d, 0x8d, 0xab, 0xc8, 0xbd,
  0x51, 0xca, 0xaf, 0xbd, 0xc2, 0x88, 0xb1, 0xbd, 0x82, 0xe7, 0x4d, 0x3b,
  0x5f, 0xe0, 0x08, 0xbd, 0x87, 0x52, 0xbe, 0x3c, 0xf0, 0x3f, 0x44, 0x3a,
  0xec, 0xa6, 0xe7, 0xbc, 0xbf, 0xe7, 0xfb, 0xbb, 0x94, 0x1d, 0xaf, 0xbd,
  0xac, 0x95, 0x29, 0xbc, 0x4b, 0x0f, 0xbf, 0xbd, 0x26, 0xb8, 0xd2, 0xbd,
  0x26, 0xe2, 0x7c, 0xbc, 0x1d, 0x1d, 0xcf, 0x3c, 0x98, 0xe4, 0x6e, 0xbd,
  0xf6, 0x52, 0xcc, 0x3c, 0x68, 0x5c, 0xa2, 0xbd, 0xe7, 0xd7, 0xf5, 0xbd,
  0xa6, 0x27, 0x13, 0xbd, 0xfb, 0xbb, 0x08, 0x3d, 0xb8, 0x0f, 0x7e, 0xbd,
  0xaa, 0x15, 0x22, 0x3d, 0xee, 0x00, 0x71, 0xbd, 0xb0, 0xf0, 0x71, 0xbd,
  0xe2, 0x6a, 0x66, 0xbd, 0xa0, 0x87, 0xaf, 0xbd, 0xae, 0x31, 0xef, 0x3c,
  0x6d, 0x63, 0xa0, 0xbd, 0x47, 0x6f, 0x58, 0xbd, 0x7b, 0xf6, 0x38, 0x3b,
  0x93, 0x72, 0xd5, 0x3d, 0x9c, 0x2e, 0xcd, 0x3c, 0xc1, 0x08, 0x71, 0x3b,
  0xcd, 0x20, 0xe7, 0xbc, 0x77, 0x3d, 0x82, 0x3c, 0x58, 0xfb, 0x91, 0xbc,
  0x09, 0x59, 0x1c, 0x3d, 0xc2, 0x34, 0x1c, 0xbc, 0xd0, 0x97, 0x33, 0x3d,
  0xac, 0x04, 0x4a, 0x3d, 0xc6, 0x82, 0xe1, 0x3b, 0xf4, 0xeb, 0xb6, 0xbd,
  0x7b, 0x34, 0x0a, 0xbd, 0x03, 0x2b, 0x06, 0xbe, 0x7d, 0x19, 0x39, 0xbd,
  0x2a, 0x4d, 0x01, 0xbc, 0x1f, 0xe9, 0x9a, 0x3d, 0x93, 0xca, 0xea, 0xbc,
  0x3b, 0xc0, 0xb9, 0xbc, 0xe6, 0x8b, 0x5d, 0x3d, 0x06, 0x38, 0x1e, 0x3d,
  0x4f, 0xd8, 0x27, 0xbc, 0xba, 0xab, 0x02, 0x3d, 0x41, 0xe1, 0x54, 0x3d,
  0x11, 0x72, 0xc4, 0xbc, 0x3c, 0x4a, 0x78, 0xbd, 0x20, 0x0b, 0x5f, 0x3c,
  0x5d, 0xd0, 0xe6, 0x3d, 0x92, 0x2d, 0x14, 0xbd, 0xdf, 0x87, 0xb8, 0x3c,
  0x91, 0xa3, 0x17, 0xbd, 0x1d, 0x2e, 0x80, 0xbd, 0x82, 0xbe, 0x22, 0xbd,
  0x17, 0xd8, 0xd0, 0xbd, 0x90, 0x94, 0x22, 0xbc, 0x2d, 0xdb, 0x38, 0xbd,
  0x1d, 0x31, 0xf5, 0xbd, 0x4c, 0x24, 0x2d, 0xbd, 0x9e, 0x1a, 0xa3, 0xb9,
  0xf1, 0xb7, 0xa6, 0xbc, 0x44, 0x76, 0x24, 0xbd, 0x27, 0xaa, 0xb1, 0xbc,
  0x15, 0xd1, 0x24, 0x3c, 0x48, 0x7a, 0xa5, 0xbc, 0x27, 0x84, 0xdb, 0xbc,
  0x04, 0xe7, 0x27, 0x3c, 0x55, 0xb1, 0x5a, 0xbc, 0xab, 0x3b, 0xc6, 0x3d,
  0xd4, 0x92, 0x81, 0x3d, 0x4c, 0x53, 0xd3, 0x3d, 0xbe, 0x74, 0xd6, 0xbb,
  0x67, 0xec, 0xf6, 0x3d, 0x0c, 0xd2, 0xaa, 0x3d, 0x65, 0xfa, 0x12, 0xbe,
  0x1c, 0xd1, 0x57, 0x3d, 0x19, 0x63, 0x59, 0x3d, 0xd5, 0x83, 0x8f, 0x3d,
  0x2a, 0x1b, 0xe8, 0x3d, 0xfc, 0x97, 0xbe, 0x3d, 0x5c, 0x68, 0xdd, 0x3d,
  0x0b, 0xeb, 0x8c, 0xbd, 0x69, 0x81, 0x68, 0x3d, 0xa1, 0xb5, 0x8a, 0x3c,
  0x9b, 0x4c, 0xc9, 0xbc, 0x73, 0xe0, 0xb9, 0xbd, 0x9b, 0x1f, 0x94, 0xbd,
  0x35, 0x00, 0xd9, 0x3d, 0x5f, 0xc8, 0xe8, 0x3c, 0xa8, 0xfe, 0x23, 0x3d,
  0xd2, 0x70, 0xb9, 0xbc, 0xba, 0x33, 0x65, 0xbd, 0xce, 0x5e, 0xa9, 0xbb,
  0x88, 0x9b, 0x4d, 0xbd, 0x08, 0xd9, 0x6d, 0xbd, 0x72, 0x76, 0x00, 0xbd,
  0xe3, 0x8f, 0x0d, 0x3d, 0x6c, 0x85, 0x9d, 0xbd, 0x17, 0x8f, 0xa1, 0xbd,
  0xba, 0xec, 0xcd, 0xbc, 0x52, 0xa6, 0xff, 0xff, 0x04, 0x00, 0x00, 0x00,
  0x14, 0x00, 0x00, 0x00, 0xb3, 0x69, 0x44, 0x3c, 0x1e, 0x91, 0x6c, 0xbd,
  0xd5, 0x42, 0x88, 0xbc, 0x09, 0xd5, 0x8a, 0x3b, 0x81, 0x4d, 0x26, 0xbd,
  0x72, 0xa6, 0xff, 0xff, 0x04, 0x00, 0x00, 0x00, 0x0c, 0x00, 0x00, 0x00,
  0x00, 0x00, 0x00, 0x00, 0x02, 0x00, 0x00, 0x00, 0x01, 0x00, 0x00, 0x00,
  0x8a, 0xa6, 0xff, 0xff, 0x04, 0x00, 0x00, 0x00, 0x08, 0x00, 0x00, 0x00,
  0x01, 0x00, 0x00, 0x00, 0xd0, 0x00, 0x00, 0x00, 0x9e, 0xa6, 0xff, 0xff,
  0x04, 0x00, 0x00, 0x00, 0x00, 0x18, 0x00, 0x00, 0xf1, 0x9b, 0x97, 0xbe,
  0xc7, 0x2c, 0x84, 0x3e, 0x93, 0x59, 0x28, 0xbe, 0x08, 0x38, 0x53, 0xbe,
  0x41, 0x1c, 0xa8, 0x3d, 0x88, 0xe5, 0xca, 0x3e, 0x0a, 0x16, 0xcf, 0xbd,
  0x86, 0xe3, 0xe3, 0x3d, 0x92, 0x7d, 0x73, 0x3e, 0x82, 0x8d, 0x1a, 0x3e,
  0x93, 0xb7, 0xa8, 0xbd, 0x17, 0xaf, 0x3b, 0xbd, 0xdc, 0x9e, 0xa6, 0xbd,
  0xb2, 0x36, 0x2f, 0xbe, 0x31, 0xa1, 0xda, 0xbd, 0x34, 0x88, 0xac, 0xbe,
  0x23, 0x4f, 0xa5, 0xbb, 0x9e, 0x1d, 0x55, 0x3c, 0x70, 0xd0, 0x5a, 0x3e,
  0xb4, 0x32, 0x1f, 0x3d, 0x46, 0xa5, 0xee, 0xbd, 0x5c, 0xee, 0x43, 0x3e,
  0x06, 0xea, 0x0f, 0x3d, 0x76, 0x60, 0xd8, 0x3e, 0xdc, 0xb6, 0xa1, 0x3e,
  0x7b, 0x01, 0x12, 0xbe, 0x3e, 0xa6, 0x8b, 0xbe, 0xe5, 0xe7, 0x16, 0x3e,
  0xc5, 0x05, 0x68, 0xbd, 0x76, 0xd8, 0x85, 0xbe, 0xad, 0x10, 0xc8, 0x3e,
  0x3d, 0x31, 0x2f, 0xbd, 0x5d, 0xd3, 0x49, 0x3e, 0xf8, 0xf4, 0x3c, 0xbe,
  0x63, 0x74, 0x7a, 0x3e, 0x45, 0xb4, 0x2f, 0xbe, 0x85, 0x96, 0xf9, 0xbc,
  0xb2, 0x0f, 0x9d, 0x3b, 0x9e, 0x29, 0x25, 0x3e, 0x85, 0x0e, 0x54, 0x3c,
  0x9b, 0xb5, 0xb0, 0xbd, 0x68, 0x02, 0x5d, 0x3a, 0x56, 0xa2, 0x3b, 0xbe,
  0x22, 0x17, 0x9c, 0xbd, 0x83, 0x56, 0x95, 0x3e, 0x15, 0xbf, 0x6f, 0xbe,
  0x75, 0xd3, 0x70, 0xbe, 0x6b, 0xd9, 0xa0, 0x3e, 0x27, 0xae, 0xbf, 0xbd,
  0x88, 0xdb, 0x99, 0xbe, 0x37, 0x2f, 0x31, 0xbc, 0x04, 0xc3, 0xd2, 0x3d,
  0x44, 0xec, 0x56, 0xbe, 0x8e, 0x9f, 0x6f, 0x3e, 0x06, 0xc6, 0x71, 0xbe,
  0xac, 0x14, 0x8a, 0x3e, 0xd8, 0x8a, 0x83, 0xbe, 0x5a, 0x04, 0xa5, 0xbe,
  0x4a, 0x19, 0x36, 0x3d, 0xd7, 0x05, 0x63, 0xbd, 0x74, 0x6c, 0x5e, 0x3e,
  0x5f, 0xcb, 0x3a, 0xbe, 0xc0, 0x30, 0x2c, 0xbe, 0xa1, 0x63, 0xd2, 0x3e,
  0xe4, 0x48, 0x3a, 0x3e, 0xa9, 0x90, 0x3d, 0x3e, 0x7d, 0x05, 0x42, 0x3c,
  0x5e, 0x69, 0xa6, 0xbe, 0x04, 0xff, 0xb5, 0xbd, 0x7a, 0x81, 0x4c, 0x3e,
  0xe1, 0xff, 0xb8, 0x3d, 0xe3, 0x47, 0xc8, 0xbd, 0x2b, 0x52, 0x86, 0xbe,
  0x7c, 0x88, 0x5c, 0xbe, 0x99, 0x47, 0x8e, 0xbe, 0x90, 0xb5, 0xe8, 0xbd,
  0x04, 0xaf, 0x20, 0xbe, 0x22, 0x53, 0x01, 0x3d, 0xfb, 0xe8, 0x47, 0x3e,
  0xbd, 0xbd, 0xca, 0x3d, 0xb5, 0xfe, 0x04, 0x3e, 0x48, 0xe8, 0xd3, 0xbd,
  0x64, 0xfe, 0x64, 0xbe, 0xa9, 0x0c, 0x74, 0x3a, 0x9d, 0x46, 0x63, 0x3d,
  0xf9, 0x26, 0xd7, 0xbd, 0xa8, 0x2a, 0x4e, 0x3e, 0xba, 0xf3, 0x73, 0xbd,
  0x52, 0x3c, 0x9b, 0xbd, 0x8d, 0xca, 0x20, 0xbe, 0x83, 0x3b, 0x99, 0xbd,
  0x44, 0xf6, 0x9f, 0x3e, 0x75, 0x4d, 0x54, 0x3e, 0x3f, 0x82, 0x60, 0x3e,
  0xd8, 0x71, 0xba, 0x3d, 0x3d, 0xc7, 0x63, 0x3e, 0xee, 0x23, 0xc5, 0x3e,
  0x66, 0x56, 0xef, 0x3e, 0x4c, 0xca, 0x9f, 0xbd, 0x44, 0xfa, 0x94, 0x3d,
  0xe2, 0x19, 0x25, 0x3d, 0xc4, 0xa8, 0x8f, 0x3e, 0xb0, 0x44, 0x35, 0xbf,
  0x10, 0x90, 0xd9, 0x3e, 0x01, 0x9c, 0xde, 0x3e, 0x06, 0x34, 0x49, 0x3e,
  0x6e, 0xa2, 0x97, 0x3e, 0xea, 0x75, 0xda, 0xbe, 0x5a, 0xba, 0x1a, 0xbe,
  0x6c, 0x6a, 0x5c, 0xbe, 0xe0, 0xff, 0x9a, 0xbd, 0xe8, 0x9e, 0xaf, 0xbe,
  0x8f, 0x6b, 0x62, 0x3e, 0x02, 0xb5, 0xd6, 0x3e, 0xe6, 0x66, 0xd2, 0x3e,
  0x9d, 0xc7, 0x63, 0xbe, 0x63, 0xf2, 0xd2, 0xbd, 0x37, 0x03, 0x5d, 0xbe,
  0x6e, 0xa9, 0xf4, 0xbd, 0x20, 0x87, 0xf0, 0xbe, 0x72, 0xd1, 0x3d, 0xbd,
  0x07, 0x5e, 0x6e, 0xbc, 0xd7, 0x28, 0xf3, 0x3e, 0x6f, 0x53, 0x92, 0xbe,
  0x29, 0x24, 0x2b, 0x3f, 0xea, 0xf8, 0xd9, 0x3e, 0x2f, 0x3e, 0x82, 0xbd,
  0xd7, 0xe3, 0xd2, 0xbd, 0x87, 0x44, 0xaa, 0x3e, 0xdd, 0x3a, 0xa1, 0xbd,
  0x8c, 0x98, 0x8f, 0xbe, 0xaa, 0xa1, 0x8c, 0xbd, 0x9f, 0x92, 0x96, 0x3d,
  0x51, 0x81, 0xea, 0xbe, 0x99, 0x5d, 0xde, 0xbe, 0xb1, 0x32, 0xf4, 0x3e,
  0x4f, 0x33, 0x87, 0xbe, 0xe9, 0x12, 0xe7, 0xbe, 0xd7, 0x9e, 0x28, 0x3d,
  0x1d, 0x85, 0x61, 0x3e, 0xde, 0x21, 0x07, 0xbf, 0xb2, 0x09, 0x5a, 0x3e,
  0x0f, 0x31, 0x1d, 0x3e, 0x3a, 0x9b, 0x53, 0x3e, 0xd7, 0x4e, 0x06, 0xbd,
  0x21, 0x74, 0x20, 0x3e, 0x8f, 0x92, 0x76, 0xbe, 0x1a, 0x14, 0xde, 0x3e,
  0x32, 0xfa, 0x1b, 0x3e, 0x57, 0xee, 0x94, 0x3e, 0xd7, 0x11, 0xd3, 0x3e,
  0xf6, 0xb6, 0x5f, 0xbe, 0xcc, 0x1b, 0xb5, 0x3e, 0x53, 0xcf, 0xdb, 0xbe,
  0x38, 0xf4, 0x32, 0x3e, 0xaa, 0x69, 0x39, 0xbe, 0xbc, 0x50, 0x19, 0xbe,
  0x99, 0x6e, 0x3e, 0x3e, 0x5a, 0x9a, 0x24, 0xbe, 0x85, 0xe6, 0xfa, 0xbd,
  0x82, 0x0c, 0x06, 0x3c, 0x28, 0xad, 0xfa, 0x3d, 0x91, 0xc4, 0xac, 0xbd,
  0x96, 0x00, 0xbf, 0xbe, 0x7d, 0xfa, 0xc0, 0xbe, 0x52, 0x19, 0x16, 0xbe,
  0xe2, 0x99, 0x51, 0xbd, 0x3b, 0xf1, 0x5d, 0x3e, 0x3c, 0xdc, 0xb3, 0x3e,
  0x29, 0x53, 0xc1, 0xbe, 0x9c, 0x83, 0x70, 0xbe, 0x96, 0xce, 0x4c, 0xbc,
  0x89, 0x7a, 0xe8, 0x3e, 0x52, 0xf1, 0x7c, 0xbd, 0x6c, 0x14, 0x33, 0xbe,
  0x5c, 0x97, 0xb8, 0xbe, 0x36, 0x41, 0x1e, 0xbe, 0xb9, 0x2f, 0xbc, 0xbe,
  0xc9, 0x6c, 0xf1, 0x3e, 0x5b, 0x3d, 0x19, 0x3e, 0x42, 0x3a, 0xe4, 0xbd,
  0x7d, 0xb9, 0x8b, 0x3e, 0xb4, 0x5e, 0x53, 0x3d, 0x61, 0xbc, 0x76, 0x3e,
  0xf3, 0x31, 0xb8, 0xbe, 0xca, 0xd6, 0xe2, 0x3d, 0x90, 0x25, 0xe7, 0xbd,
  0x07, 0xd7, 0x8c, 0xbe, 0xbd, 0x63, 0x9c, 0x3e, 0x81, 0x71, 0xd9, 0xbe,
  0xf3, 0xbc, 0x5e, 0x3e, 0x1a, 0xbc, 0xbc, 0x3e, 0x4b, 0xf9, 0x23, 0x3e,
  0x35, 0xdb, 0xd7, 0x3e, 0x39, 0x02, 0x44, 0x3d, 0x65, 0xa5, 0xfc, 0x3e,
  0x87, 0xde, 0xfd, 0x3e, 0x80, 0x32, 0xda, 0x3d, 0xa1, 0x14, 0x2b, 0x3e,
  0x4c, 0x00, 0x12, 0xbf, 0x2c, 0xa6, 0xd1, 0xbe, 0x8e, 0x74, 0x40, 0xbe,
  0xa3, 0x04, 0xc7, 0x3e, 0xba, 0x25, 0x05, 0x3e, 0x1f, 0x40, 0xaf, 0xbe,
  0x7b, 0x6d, 0xa4, 0xbe, 0x91, 0xdd, 0xd2, 0x3e, 0x3c, 0xb3, 0x41, 0x3f,
  0x96, 0x20, 0xcd, 0xbe, 0xdd, 0xa8, 0x24, 0x3e, 0x46, 0x73, 0x10, 0x3f,
  0xd4, 0x0e, 0xa8, 0x3e, 0xc7, 0xcf, 0x9f, 0xbe, 0xbf, 0x8d, 0x28, 0x3e,
  0xad, 0x1c, 0x96, 0xbe, 0x2d, 0xa2, 0x06, 0x3f, 0x8e, 0xe7, 0x20, 0xbf,
  0xb9, 0x76, 0x1a, 0x3d, 0x66, 0x85, 0xe8, 0x3d, 0x54, 0x4f, 0xa1, 0xbe,
  0xa1, 0xed, 0x2d, 0xbf, 0x0e, 0x48, 0x72, 0x3e, 0xde, 0x96, 0xeb, 0xbd,
  0x33, 0x23, 0xa8, 0x3e, 0x41, 0x1e, 0xe7, 0x3e, 0xb9, 0x77, 0xbe, 0x3d,
  0x30, 0x21, 0x3b, 0xbf, 0x36, 0x7b, 0x11, 0xbf, 0xb7, 0x35, 0x9f, 0x3d,
  0xd0, 0xdf, 0xa0, 0xbe, 0x10, 0x59, 0x05, 0xbe, 0xc3, 0x2d, 0xbc, 0xbe,
  0xfd, 0xed, 0xdc, 0x3e, 0xfc, 0xdb, 0xba, 0xbe, 0xe6, 0xff, 0xde, 0xbe,
  0x51, 0xc2, 0xf5, 0x3e, 0x66, 0x67, 0x7c, 0x3f, 0x7b, 0x64, 0xaf, 0x3e,
  0x27, 0x7c, 0x45, 0xbf, 0xf9, 0xc3, 0xbb, 0xbc, 0x5a, 0x2e, 0x61, 0xbe,
  0x15, 0xde, 0xd1, 0x3d, 0xc1, 0xb1, 0x5b, 0x3c, 0xc3, 0xb6, 0x10, 0xbf,
  0x75, 0x4f, 0xbb, 0x3e, 0x92, 0x3d, 0x08, 0x3e, 0x1d, 0x8b, 0xed, 0xbe,
  0x52, 0x58, 0xca, 0xbe, 0xce, 0x8a, 0x22, 0xbe, 0x6b, 0x7d, 0xfb, 0xbd,
  0x1e, 0xab, 0x3a, 0xbc, 0xbc, 0x80, 0x8b, 0xbe, 0xda, 0xff, 0xd1, 0x3e,
  0xd8, 0x5d, 0x08, 0x3f, 0xe9, 0x30, 0xbd, 0xbe, 0xdc, 0x79, 0x69, 0xbe,
  0x6e, 0xbc, 0x4d, 0xbe, 0x65, 0x65, 0xd7, 0xbe, 0x89, 0x46, 0x65, 0xbe,
  0xb3, 0x8b, 0x91, 0xbe, 0xa1, 0x9c, 0x8f, 0x3e, 0xe4, 0xff, 0x06, 0x3f,
  0xc3, 0x2b, 0xce, 0x3e, 0x35, 0xe1, 0x6e, 0xbe, 0xa4, 0x38, 0xf4, 0xbe,
  0x28, 0xb8, 0x82, 0x3e, 0xa1, 0x19, 0x54, 0x3e, 0x6f, 0xfa, 0xcd, 0x3e,
  0x9e, 0x9e, 0x91, 0x3d, 0xe9, 0x01, 0x6b, 0x3f, 0x65, 0xc4, 0x1b, 0xbe,
  0xd1, 0x8d, 0xe5, 0xbd, 0x23, 0x57, 0xce, 0xbe, 0xf1, 0xe0, 0xe6, 0x3e,
  0x7e, 0xc9, 0xa3, 0x3e, 0xf0, 0xf8, 0x55, 0x3e, 0xf0, 0x34, 0xfb, 0xbe,
  0x38, 0x89, 0xec, 0x3d, 0x87, 0xc5, 0x06, 0x3f, 0xb2, 0x2d, 0xef, 0xbe,
  0x3a, 0x9f, 0x08, 0x3e, 0xc3, 0xea, 0x9c, 0xbe, 0x91, 0xa8, 0x1a, 0xbd,
  0x0e, 0xe9, 0x31, 0xbe, 0xe7, 0xb9, 0x1f, 0xbf, 0xe7, 0xa7, 0xe8, 0xbe,
  0x1f, 0xfc, 0x08, 0x3e, 0xa7, 0x87, 0xb9, 0x3e, 0x82, 0xbd, 0x71, 0x3e,
  0x5c, 0xa7, 0x87, 0xbe, 0x37, 0xaa, 0xfe, 0xbd, 0x91, 0xbe, 0x85, 0xbe,
  0x55, 0x6e, 0xbc, 0x3e, 0xbe, 0x61, 0x57, 0x3e, 0xa5, 0x9d, 0x4d, 0xbc,
  0x8e, 0x7d, 0xee, 0x3d, 0x62, 0xcf, 0x77, 0xbd, 0x49, 0x04, 0x7c, 0xbe,
  0x1a, 0x1d, 0x41, 0x3e, 0x5e, 0x29, 0x41, 0xbe, 0x2d, 0x94, 0x4e, 0xbe,
  0xd7, 0xbb, 0xa6, 0x3e, 0x49, 0xf1, 0xc0, 0xbd, 0xb8, 0x8e, 0xc7, 0xbe,
  0xb7, 0x7a, 0x22, 0xbd, 0x16, 0xdd, 0xdf, 0x3d, 0x43, 0x16, 0x94, 0x3e,
  0xdb, 0xa1, 0x3b, 0x3e, 0x7f, 0x53, 0x43, 0x3e, 0x82, 0xba, 0x8d, 0x3e,
  0x83, 0x72, 0x92, 0xbe, 0x54, 0xd2, 0xf1, 0xbe, 0xb6, 0xab, 0x6e, 0xbe,
  0xa1, 0xc1, 0xa8, 0x3e, 0x0b, 0xd3, 0x3d, 0x3d, 0x23, 0xdf, 0x01, 0x3d,
  0x0a, 0xa2, 0xf4, 0x3e, 0xed, 0x77, 0x92, 0xbe, 0xfc, 0x32, 0x0d, 0xbe,
  0x76, 0x00, 0x8c, 0xbe, 0xe8, 0xa8, 0x43, 0xbe, 0x58, 0x7b, 0x2b, 0xbe,
  0xf7, 0xd8, 0x99, 0xbe, 0x12, 0x8b, 0x28, 0xbe, 0x7b, 0xbf, 0x0b, 0x3f,
  0x7b, 0x97, 0xd6, 0xbd, 0x84, 0x87, 0x8c, 0x3d, 0x1d, 0x3e, 0x86, 0x3e,
  0x21, 0xa8, 0xaf, 0x3e, 0x7a, 0xef, 0xb0, 0x3d, 0x01, 0x0b, 0x37, 0xbe,
  0x73, 0x04, 0x6c, 0xbd, 0x32, 0x91, 0x85, 0xbe, 0xcb, 0x6a, 0x3d, 0x3d,
  0x86, 0xd2, 0x79, 0xbe, 0x91, 0xeb, 0xa5, 0xbe, 0xcc, 0xac, 0x94, 0x3d,
  0x67, 0x75, 0x92, 0xbc, 0x23, 0xa8, 0xc5, 0x3e, 0xce, 0x8b, 0x2c, 0xbe,
  0x61, 0x12, 0x9a, 0x3c, 0x23, 0x4b, 0x50, 0xbe, 0x1b, 0x41, 0xde, 0x3d,
  0xc9, 0x45, 0x67, 0xbb, 0x4c, 0x60, 0x61, 0x3e, 0xec, 0xd8, 0x10, 0xbe,
  0xbb, 0x82, 0x15, 0x3e, 0x66, 0x1f, 0xaa, 0xbe, 0x25, 0x9f, 0x30, 0x3e,
  0x38, 0xf4, 0x7c, 0xbd, 0x20, 0xd2, 0x62, 0xbe, 0xcb, 0xea, 0x2a, 0xbc,
  0x8b, 0x4a, 0xcf, 0x3c, 0xd1, 0xe1, 0x2e, 0x3e, 0x1d, 0xfa, 0x01, 0x3e,
  0x80, 0x1d, 0x68, 0x3d, 0x3a, 0xdc, 0x13, 0x3d, 0xd8, 0x4d, 0x7d, 0x3d,
  0x8a, 0x33, 0x4d, 0xbe, 0x40, 0xcc, 0x76, 0x3e, 0x61, 0x1f, 0xd6, 0xbd,
  0x24, 0x68, 0x28, 0x3e, 0x81, 0x29, 0x77, 0x3e, 0x72, 0x99, 0x33, 0x3c,
  0xbb, 0xea, 0x3e, 0xbe, 0x0e, 0xe6, 0x5f, 0xbe, 0x4d, 0xaa, 0x7a, 0xbe,
  0x53, 0x8b, 0xcf, 0x3e, 0x1e, 0x71, 0x5f, 0xbe, 0x04, 0x67, 0x63, 0xbe,
  0x15, 0x3f, 0x65, 0xbe, 0xf7, 0x13, 0x05, 0xbe, 0xd2, 0xad, 0xd4, 0x3e,
  0xcf, 0x7c, 0x80, 0xbe, 0x73, 0xd6, 0x96, 0xbe, 0x58, 0x8d, 0x4e, 0xbe,
  0xc2, 0x40, 0x6c, 0x3d, 0xa8, 0x31, 0x57, 0xbe, 0x65, 0x7a, 0x4b, 0xbe,
  0x78, 0x1b, 0x9b, 0xbd, 0x42, 0xc8, 0xc5, 0x3e, 0x91, 0x04, 0xab, 0xbe,
  0xfc, 0x41, 0x78, 0xbe, 0x6e, 0xb8, 0x34, 0xbd, 0xf7, 0x3e, 0x8d, 0x3d,
  0xae, 0xb0, 0xa2, 0x3e, 0x35, 0x16, 0xfa, 0x3d, 0xee, 0x0a, 0x86, 0x3e,
  0xb0, 0xbc, 0x31, 0xbe, 0x4d, 0x91, 0xfd, 0xbd, 0xc7, 0x46, 0xdf, 0xbb,
  0xcb, 0xf6, 0x85, 0xbc, 0xd5, 0x5a, 0x80, 0xbe, 0x24, 0xef, 0xbe, 0xbd,
  0x75, 0xe6, 0x36, 0xbe, 0x21, 0xe5, 0x52, 0x3e, 0xf1, 0xb6, 0x6d, 0xbe,
  0xbe, 0x77, 0xdc, 0x3e, 0xae, 0xc1, 0xc3, 0xbe, 0xe1, 0x08, 0x87, 0xbe,
  0xeb, 0xd1, 0x2c, 0x3c, 0x37, 0x10, 0xf7, 0x3e, 0x60, 0x1b, 0xa5, 0x3e,
  0xa2, 0xad, 0x55, 0xbe, 0x73, 0x0d, 0x76, 0x3d, 0x01, 0xde, 0xae, 0xbd,
  0x54, 0xf8, 0xba, 0x3e, 0x00, 0x8f, 0x14, 0xbe, 0xad, 0xe0, 0x0c, 0xbe,
  0x04, 0x19, 0x5d, 0x3e, 0xd0, 0x65, 0x81, 0xbd, 0xc8, 0x5b, 0x3c, 0x3e,
  0x21, 0xdd, 0xd6, 0x3e, 0xe2, 0x55, 0xd0, 0xbd, 0x1c, 0xb3, 0xc9, 0x3d,
  0xa4, 0x8b, 0xc7, 0xbd, 0xb1, 0x9e, 0x8d, 0xbe, 0xdf, 0xc1, 0x25, 0xbe,
  0x8a, 0xce, 0xc7, 0xbe, 0xf9, 0xf6, 0x0d, 0xbc, 0xec, 0x84, 0x88, 0x3d,
  0x6b, 0x25, 0x8d, 0xbd, 0x40, 0x78, 0x9c, 0x3e, 0xee, 0x21, 0xa5, 0x3e,
  0xe9, 0x1f, 0x0c, 0xbe, 0xef, 0x33, 0xf9, 0xbe, 0xae, 0x49, 0x1a, 0xbe,
  0xe8, 0xa2, 0x93, 0xbe, 0x86, 0xb1, 0xa1, 0xbe, 0xae, 0x36, 0x5c, 0xbe,
  0x8d, 0x3c, 0x49, 0xbe, 0x70, 0xa1, 0xc4, 0xbc, 0xc6, 0x3f, 0x7b, 0x3e,
  0x9e, 0x06, 0x25, 0x3d, 0x47, 0x0e, 0x89, 0x3e, 0x08, 0xe7, 0x23, 0xbe,
  0x87, 0x50, 0xa3, 0x3e, 0x0c, 0x1f, 0x76, 0x3e, 0x57, 0x8e, 0x49, 0xbe,
  0x30, 0xd2, 0x0a, 0x3e, 0x53, 0x5b, 0x8f, 0x3e, 0xcb, 0xae, 0xe1, 0xbd,
  0x5c, 0x8a, 0x5e, 0xbb, 0x38, 0x4e, 0xd3, 0x3d, 0x08, 0x73, 0xf6, 0x3d,
  0x45, 0x85, 0x9f, 0x3e, 0x85, 0x8b, 0x17, 0xbe, 0x3c, 0x85, 0x85, 0x3e,
  0x66, 0x17, 0xb9, 0x3e, 0xc7, 0x0a, 0x07, 0x3e, 0xd5, 0xd5, 0xb1, 0xbe,
  0x41, 0x9c, 0x01, 0x3e, 0x06, 0xc5, 0x80, 0x3e, 0x6c, 0x20, 0xa1, 0xbe,
  0x07, 0x2e, 0x8d, 0xbe, 0xaa, 0x3f, 0x89, 0xbc, 0xf0, 0x89, 0x8a, 0xbd,
  0x0c, 0x13, 0x81, 0x3d, 0xd9, 0x3b, 0x9e, 0x3c, 0xb4, 0x8a, 0x9f, 0xbe,
  0x0b, 0x43, 0xe6, 0xbd, 0xfb, 0xd3, 0x1f, 0xbe, 0x03, 0xb0, 0x99, 0x3b,
  0xf3, 0xaa, 0x1c, 0x3e, 0x32, 0x62, 0xc1, 0x3d, 0x92, 0xa3, 0x98, 0x3e,
  0xec, 0x5d, 0xa4, 0x3e, 0x32, 0x86, 0x7f, 0x3e, 0x28, 0x31, 0x8f, 0xbd,
  0x98, 0xc1, 0x85, 0xbc, 0x13, 0x3f, 0xbe, 0xbd, 0x8f, 0xc3, 0xe0, 0xbe,
  0x77, 0xa3, 0x4d, 0x3c, 0xd5, 0xb5, 0x5a, 0xbe, 0x75, 0x82, 0x97, 0xbe,
  0x22, 0x5c, 0x17, 0xbe, 0x9f, 0xca, 0x0e, 0x3e, 0x35, 0x6a, 0x38, 0xbe,
  0xd3, 0xce, 0x09, 0x3e, 0x21, 0x7e, 0x9b, 0xbe, 0xb5, 0xae, 0xd2, 0xbd,
  0x4d, 0x1f, 0xeb, 0xbe, 0x10, 0x54, 0x8a, 0x3e, 0xa6, 0xdc, 0x87, 0xbe,
  0x61, 0xa0, 0x32, 0x3d, 0xb7, 0x04, 0xb1, 0x3d, 0x50, 0x9a, 0x0a, 0xbe,
  0x35, 0x31, 0x87, 0x3e, 0x10, 0x59, 0x8a, 0x3d, 0xe5, 0x6a, 0xc2, 0x3e,
  0x2f, 0x25, 0xb5, 0xbe, 0xd6, 0xfc, 0xbd, 0xbe, 0x74, 0x4b, 0xd7, 0xbc,
  0x21, 0x63, 0x14, 0xbe, 0xc2, 0xf1, 0x1b, 0xbe, 0x5a, 0x4f, 0xbc, 0xbe,
  0x32, 0x44, 0x56, 0xbe, 0x8d, 0x26, 0x9f, 0xbd, 0x6f, 0x36, 0xf7, 0x3d,
  0xa2, 0x09, 0x8a, 0xbe, 0x2e, 0x40, 0xbc, 0x3e, 0x3e, 0xb3, 0x79, 0x3e,
  0xcb, 0x6c, 0x7f, 0x3e, 0x90, 0xff, 0x04, 0x3e, 0xe7, 0x78, 0xb6, 0x3e,
  0x99, 0xe3, 0xc4, 0xbe, 0x1e, 0x97, 0x66, 0xbe, 0xfc, 0xb2, 0x0c, 0xbd,
  0xf6, 0x7f, 0xb4, 0x3e, 0xa8, 0x68, 0x1d, 0xbe, 0xd2, 0x63, 0xe9, 0x3d,
  0xda, 0x0e, 0x69, 0xbe, 0x78, 0x0b, 0x23, 0xbe, 0x06, 0xe4, 0xa9, 0xbe,
  0x56, 0x66, 0x08, 0xbe, 0x6d, 0xe9, 0x90, 0xbe, 0x94, 0xb3, 0xc6, 0x3d,
  0xf5, 0x20, 0xc7, 0xbe, 0xef, 0xe5, 0x06, 0xbf, 0x14, 0x96, 0x0b, 0x3e,
  0x8c, 0x81, 0x70, 0xbe, 0x6e, 0x7c, 0x3b, 0xbe, 0x63, 0x10, 0x04, 0xbe,
  0xad, 0xbf, 0xeb, 0x3d, 0xf9, 0x2e, 0xfe, 0x3e, 0xa2, 0x80, 0xc2, 0xbe,
  0x9f, 0x32, 0x76, 0xbe, 0x0a, 0x6e, 0x7d, 0x3e, 0x99, 0x6e, 0x9a, 0x3e,
  0x28, 0x74, 0x18, 0xbe, 0xd3, 0xd7, 0x9f, 0x3e, 0x1c, 0xb7, 0x00, 0xbf,
  0x10, 0x4d, 0x90, 0x3e, 0x5f, 0xf9, 0x5c, 0xbe, 0xf9, 0x2f, 0x97, 0xbe,
  0xb2, 0xf8, 0xb1, 0xbe, 0xc3, 0xe9, 0xaf, 0x3e, 0x78, 0x1d, 0xa9, 0xbe,
  0x71, 0xe7, 0xf9, 0x3e, 0xd5, 0x75, 0xcf, 0xbe, 0xa2, 0xd4, 0x39, 0xbe,
  0x44, 0xb8, 0x3a, 0x3d, 0xd1, 0x5d, 0xc5, 0x3d, 0x00, 0x57, 0x68, 0xbe,
  0x13, 0x1b, 0x9f, 0xbe, 0xdc, 0x1c, 0x00, 0xbe, 0x28, 0x18, 0xb0, 0x3e,
  0xa6, 0x28, 0xbb, 0xbd, 0x15, 0xed, 0xe7, 0x3e, 0xaa, 0xd4, 0x06, 0xbe,
  0x09, 0xf0, 0x84, 0x3d, 0x7b, 0x97, 0xb2, 0xbd, 0xdd, 0xa2, 0xb1, 0xbd,
  0xa3, 0x66, 0x27, 0x3d, 0x13, 0xf7, 0x8e, 0x3d, 0x64, 0x9b, 0xb8, 0xbe,
  0xa4, 0x7c, 0xfa, 0x3e, 0x6e, 0xb9, 0xb0, 0xbe, 0x58, 0x5d, 0x98, 0x3e,
  0xbd, 0x0f, 0xa3, 0x3d, 0xbf, 0x19, 0x5b, 0x3e, 0x21, 0x35, 0x1a, 0xbe,
  0xa2, 0x3a, 0x66, 0xbe, 0x75, 0xc1, 0x50, 0x3e, 0x1b, 0xbd, 0x74, 0xbe,
  0x26, 0x85, 0x20, 0x3e, 0x4e, 0x57, 0x04, 0xbd, 0x32, 0xdf, 0xaf, 0x3e,
  0x6b, 0xaa, 0x21, 0x3e, 0x38, 0x41, 0x97, 0x3c, 0xe5, 0x00, 0xfb, 0x3e,
  0x1c, 0x8f, 0x0b, 0x3e, 0x94, 0x2d, 0x84, 0xbe, 0x58, 0xdd, 0xac, 0xbe,
  0xd2, 0x97, 0x5b, 0xbe, 0xde, 0x6e, 0x94, 0x3e, 0x3c, 0x79, 0xc8, 0x3e,
  0x0a, 0x82, 0x24, 0xbc, 0xdf, 0xb6, 0x39, 0xbe, 0xe5, 0x31, 0x20, 0xbd,
  0x10, 0xac, 0x18, 0x3e, 0xf7, 0xda, 0xdd, 0x3e, 0x23, 0x22, 0x72, 0xbe,
  0x71, 0x71, 0x0d, 0x3d, 0x29, 0xed, 0xe1, 0x3e, 0xe2, 0x8e, 0x28, 0x3d,
  0x5e, 0x29, 0xe1, 0x3e, 0x4f, 0x25, 0xa3, 0xbd, 0x40, 0x8b, 0x1d, 0xbe,
  0xe1, 0x9f, 0xf1, 0x3e, 0xa0, 0x3e, 0xa0, 0xbe, 0x11, 0x8c, 0x4b, 0x3e,
  0x7a, 0x76, 0xf4, 0x3e, 0xdf, 0x8e, 0xac, 0xbe, 0x60, 0xa4, 0x90, 0xbc,
  0x4d, 0x44, 0x8c, 0xbe, 0x3f, 0xdd, 0x1b, 0xbe, 0xb0, 0x5d, 0x15, 0xbe,
  0x2d, 0x86, 0x2f, 0x3e, 0x3d, 0x24, 0x85, 0xbe, 0xfe, 0x42, 0x05, 0xbf,
  0xb6, 0x36, 0x7e, 0xbe, 0xa3, 0x39, 0x0f, 0x3c, 0xe9, 0xe8, 0xcf, 0x3d,
  0xb9, 0x9a, 0xda, 0xbe, 0x14, 0x87, 0xb4, 0xbe, 0x83, 0x90, 0x3f, 0xbd,
  0xb0, 0x18, 0xe1, 0xbd, 0x6b, 0x28, 0x1f, 0x3e, 0x07, 0x26, 0x93, 0x3e,
  0xa2, 0xdf, 0x2c, 0x3e, 0xa7, 0x75, 0xad, 0xbe, 0x7b, 0x50, 0x80, 0xbe,
  0x04, 0x4a, 0xf4, 0xbe, 0xf5, 0xb1, 0xdd, 0xbd, 0x4f, 0xc5, 0x98, 0x3e,
  0x4f, 0x9b, 0x88, 0xbe, 0x71, 0xf6, 0xb5, 0x3e, 0x8d, 0xf3, 0xd7, 0x3d,
  0x44, 0xb9, 0xcc, 0x3d, 0xbd, 0x72, 0x79, 0xbe, 0x41, 0xa0, 0x96, 0xbe,
  0x23, 0x59, 0x80, 0xbe, 0x9e, 0x4f, 0x56, 0xbd, 0x2f, 0x73, 0x8c, 0x3e,
  0x8c, 0xf5, 0x3a, 0x3e, 0xd5, 0x2f, 0xc3, 0x3d, 0xef, 0x26, 0xc5, 0xbe,
  0x99, 0x44, 0x6b, 0x3e, 0xfb, 0x3a, 0xd0, 0x3e, 0x60, 0x79, 0xa0, 0xbe,
  0x1d, 0x7d, 0x06, 0x3e, 0xd6, 0x22, 0xe4, 0xbe, 0xaf, 0x4b, 0x4f, 0xbe,
  0x8b, 0x27, 0x02, 0x3f, 0x8d, 0x50, 0x0a, 0x3f, 0x87, 0x69, 0x04, 0x3f,
  0xe2, 0x9b, 0x81, 0x3d, 0x5c, 0xdf, 0x9c, 0xbe, 0x79, 0xc3, 0xe4, 0xbd,
  0x7c, 0xe5, 0x62, 0xbd, 0x2f, 0x3e, 0x04, 0xbe, 0x5a, 0xc8, 0xcb, 0xbe,
  0x79, 0x1e, 0x82, 0xbc, 0xf5, 0x25, 0x18, 0x3f, 0x2a, 0xa9, 0x16, 0x3d,
  0xf2, 0xcc, 0x28, 0x3e, 0x35, 0x91, 0x52, 0xbe, 0x66, 0xd9, 0x42, 0x3e,
  0xa9, 0x7d, 0x81, 0xbd, 0x63, 0xa7, 0xec, 0x3e, 0x15, 0x00, 0x06, 0x3f,
  0xd6, 0x7c, 0xa4, 0x3e, 0x81, 0xea, 0xd6, 0x3e, 0x3a, 0x87, 0x45, 0x3e,
  0xee, 0xf3, 0x02, 0x3f, 0x99, 0xe0, 0xf7, 0xbe, 0x65, 0x84, 0x25, 0x3f,
  0xc4, 0x08, 0x7b, 0x3e, 0x01, 0x5b, 0xe5, 0x3e, 0x26, 0x77, 0xe8, 0xbe,
  0xf6, 0x58, 0xef, 0xbd, 0x0a, 0xbe, 0x27, 0x3f, 0x83, 0x5c, 0xf9, 0xbe,
  0x60, 0x3d, 0xe7, 0xbe, 0xcf, 0x40, 0x36, 0x3f, 0xc3, 0x61, 0x4e, 0x3c,
  0xc5, 0x30, 0xb8, 0xbe, 0xb4, 0x10, 0xe0, 0xbd, 0x95, 0xbf, 0xc6, 0xbe,
  0x85, 0xa8, 0xd1, 0x3d, 0xcd, 0x08, 0xf2, 0xbd, 0xfe, 0x81, 0x1c, 0x3d,
  0xd6, 0x48, 0x6d, 0xbe, 0xb4, 0xe4, 0xfa, 0x3e, 0x8f, 0xdf, 0xf4, 0x3d,
  0xb5, 0x92, 0x0c, 0x3e, 0xe4, 0x8b, 0x2f, 0xbd, 0x2d, 0xe9, 0xc8, 0xbd,
  0x62, 0x9a, 0x5f, 0xbe, 0x43, 0x67, 0x9f, 0xbc, 0x7c, 0x47, 0xd6, 0xbd,
  0x9a, 0x8a, 0xea, 0xbe, 0x76, 0xa7, 0xa0, 0x3e, 0x26, 0x6c, 0x27, 0x3e,
  0xcf, 0xe0, 0xdf, 0x3e, 0xa8, 0xd4, 0xa1, 0xbe, 0x89, 0xdc, 0xae, 0x3d,
  0x14, 0xb5, 0x92, 0x3e, 0x2a, 0x3e, 0x9a, 0x3e, 0x5e, 0xee, 0x8e, 0x3e,
  0xdf, 0x9b, 0x43, 0x3d, 0xd2, 0x02, 0x18, 0xbe, 0xf5, 0x2f, 0x37, 0x3e,
  0x5e, 0x13, 0xd6, 0x3e, 0x17, 0xd5, 0xe7, 0x3e, 0x82, 0x32, 0xfa, 0x3e,
  0x00, 0xa6, 0x85, 0xbe, 0xe3, 0xf6, 0xa8, 0x3c, 0xa2, 0xe8, 0x27, 0xbd,
  0xd2, 0xc5, 0x5e, 0x3e, 0xcf, 0xfc, 0xa9, 0x3e, 0x6d, 0x5f, 0x49, 0xbc,
  0x50, 0xa7, 0x56, 0x3e, 0xcb, 0x01, 0xe8, 0x3d, 0x5a, 0xf3, 0xb0, 0xbe,
  0x93, 0x33, 0x75, 0xbe, 0xf4, 0x99, 0x57, 0xbe, 0x53, 0xef, 0xc1, 0x3e,
  0xe8, 0x0d, 0x41, 0xbe, 0x92, 0xc9, 0xbb, 0xbd, 0x92, 0xbe, 0xa3, 0x3d,
  0x26, 0x1a, 0xa9, 0x3e, 0x3f, 0x8b, 0x42, 0xbe, 0xc3, 0x3f, 0xa4, 0x3d,
  0x8e, 0x45, 0x15, 0xbe, 0xad, 0x27, 0x39, 0xbd, 0x7e, 0xf5, 0x2e, 0xbd,
  0xf3, 0x34, 0xb9, 0x3e, 0x0e, 0x14, 0x36, 0x3e, 0x07, 0x5c, 0x75, 0xbe,
  0x8c, 0x02, 0x94, 0xbe, 0x4c, 0xf6, 0x4a, 0x3e, 0x46, 0x3d, 0x7d, 0xbe,
  0x8f, 0xc5, 0x99, 0xbe, 0x66, 0x58, 0x9e, 0xbd, 0xb2, 0x48, 0x85, 0x3b,
  0x36, 0xb0, 0x13, 0xbe, 0x22, 0x96, 0xa7, 0xbd, 0xc2, 0x50, 0x9a, 0x3d,
  0x0a, 0x7f, 0xdd, 0x3e, 0xca, 0xbb, 0x36, 0x3d, 0x67, 0x02, 0x55, 0x3e,
  0x01, 0x58, 0x05, 0xbe, 0x2f, 0x38, 0x33, 0x3e, 0x7d, 0xdb, 0x1b, 0x3e,
  0x43, 0xc2, 0xda, 0xbe, 0xb3, 0x97, 0x68, 0x3e, 0xfe, 0xad, 0x83, 0x3e,
  0xcc, 0xe6, 0x8b, 0x3d, 0x57, 0xdb, 0x06, 0x3e, 0x9d, 0x76, 0xe8, 0xbd,
  0x33, 0xc0, 0x21, 0x3e, 0xeb, 0xc4, 0x36, 0x3b, 0x03, 0xa7, 0x30, 0xbd,
  0x87, 0x8c, 0xd2, 0xbe, 0x45, 0xe1, 0x6b, 0xbe, 0xca, 0x8d, 0x66, 0x3d,
  0xd1, 0x9c, 0x7a, 0x3c, 0x5e, 0xfa, 0xb8, 0x3e, 0x84, 0xde, 0xa8, 0xbd,
  0xa3, 0x25, 0xdc, 0xbc, 0x87, 0x2d, 0x92, 0xbe, 0xcc, 0x9f, 0x26, 0x3e,
  0xcc, 0x0c, 0x5b, 0xbe, 0xb6, 0x7b, 0xe0, 0xbd, 0x2c, 0x17, 0x24, 0x3e,
  0xbc, 0xe2, 0xaa, 0x3c, 0x5d, 0xac, 0x89, 0x3e, 0x65, 0x17, 0x85, 0xbe,
  0xa0, 0xdd, 0xf0, 0x3e, 0x4f, 0x64, 0xf9, 0x3d, 0xe2, 0xac, 0xaa, 0xbe,
  0x10, 0xcc, 0xc6, 0x3e, 0xee, 0x74, 0x52, 0x3e, 0x7b, 0x6f, 0x3f, 0xbe,
  0x60, 0x05, 0x85, 0x39, 0x9b, 0x09, 0x04, 0x3e, 0xc4, 0xe7, 0x5e, 0x3e,
  0x8e, 0x55, 0x24, 0xbd, 0xe9, 0x91, 0x31, 0x3e, 0x2a, 0x3e, 0x2d, 0x3d,
  0x01, 0x0f, 0x0c, 0xbc, 0x96, 0xe6, 0x3e, 0xbd, 0x7b, 0xec, 0x25, 0x3e,
  0x28, 0xa3, 0x62, 0xbe, 0x1c, 0x8a, 0x2c, 0x3d, 0xab, 0xd2, 0x1a, 0x3c,
  0x19, 0xaf, 0x12, 0x3e, 0x92, 0x9d, 0x8d, 0x3e, 0xc3, 0x65, 0x13, 0xbe,
  0x3c, 0xd3, 0x9b, 0x3d, 0xb8, 0x2c, 0x4a, 0x3e, 0x4d, 0xf0, 0x56, 0xbe,
  0x75, 0xd4, 0x22, 0x3e, 0xb0, 0x8a, 0x4b, 0xbe, 0x40, 0x77, 0x75, 0x3e,
  0x0c, 0x3f, 0x38, 0xbe, 0xbf, 0x38, 0xd3, 0x3d, 0x94, 0x4f, 0x3f, 0x3e,
  0xdf, 0x44, 0x4c, 0x3b, 0xa7, 0x74, 0x1e, 0x3e, 0x0e, 0xc9, 0x0e, 0x3e,
  0x7e, 0x3a, 0x0e, 0xbe, 0xa4, 0x6b, 0xf1, 0x3d, 0x2d, 0x87, 0x2c, 0xbd,
  0xf8, 0xed, 0x3b, 0xbd, 0xa4, 0x44, 0x8c, 0x3d, 0x88, 0x8a, 0x25, 0xbc,
  0x72, 0x56, 0x4d, 0x3e, 0xfc, 0x73, 0x88, 0x3c, 0x76, 0xbb, 0x4c, 0xbe,
  0xae, 0xb4, 0x83, 0x3e, 0x63, 0xbf, 0x27, 0xbe, 0xea, 0xa0, 0x69, 0x3e,
  0x26, 0x00, 0x55, 0x3e, 0xd6, 0xe2, 0x73, 0xbe, 0x97, 0x7f, 0x8a, 0xbd,
  0x3b, 0xe3, 0x6e, 0xbe, 0x1e, 0xb9, 0x15, 0xbe, 0x13, 0x5c, 0x06, 0xbe,
  0x21, 0x68, 0x14, 0x3e, 0xd0, 0x21, 0x69, 0xbe, 0x8b, 0xb5, 0x0a, 0x3e,
  0x57, 0x91, 0x1d, 0xbe, 0xb6, 0xff, 0x94, 0xba, 0x5e, 0x26, 0xcc, 0x3d,
  0xbe, 0x85, 0xec, 0xbd, 0xd4, 0xa4, 0x56, 0xbd, 0x7d, 0xb5, 0x08, 0xbd,
  0x62, 0xd5, 0x17, 0x3b, 0x27, 0xeb, 0x63, 0x3e, 0x4d, 0x6d, 0x7a, 0xbe,
  0x7f, 0x55, 0x82, 0xbe, 0x78, 0x85, 0xb3, 0x3e, 0xb7, 0x0a, 0x9d, 0xbd,
  0xc6, 0x0e, 0x2b, 0x3e, 0x96, 0xd7, 0x31, 0x3e, 0x51, 0x9e, 0xec, 0xbd,
  0x39, 0xd5, 0xd0, 0xbd, 0x0a, 0x3d, 0x13, 0x3e, 0xae, 0x9d, 0x8f, 0xbd,
  0xa7, 0x09, 0x17, 0x3e, 0x3b, 0xb6, 0x5c, 0x3e, 0x1a, 0x75, 0xfc, 0x3d,
  0x5a, 0xf2, 0x64, 0xbe, 0x45, 0xfb, 0x16, 0xbd, 0xde, 0xa9, 0x90, 0xbd,
  0x5b, 0x66, 0x9b, 0xbe, 0xf9, 0x9c, 0xd5, 0x3c, 0xe2, 0x80, 0x19, 0x3d,
  0xbd, 0x0a, 0x63, 0x3d, 0x1c, 0xcc, 0x4f, 0x3d, 0x20, 0xb0, 0x94, 0xbc,
  0xb2, 0xfb, 0xdc, 0xbd, 0x6e, 0x6b, 0x60, 0xbd, 0x37, 0x70, 0x07, 0xbd,
  0xac, 0x69, 0x33, 0x3e, 0x12, 0xa7, 0xf1, 0xbc, 0xb9, 0xb1, 0x5b, 0xbe,
  0x19, 0xd9, 0xe1, 0xbc, 0x41, 0x0f, 0x7f, 0x3e, 0x7f, 0x9d, 0x4f, 0x3e,
  0xfd, 0xc1, 0x47, 0xbe, 0x5e, 0xf5, 0x6a, 0xbe, 0x8d, 0x4b, 0x8d, 0xbd,
  0x5e, 0x7f, 0xa7, 0xbe, 0x1b, 0xb5, 0x82, 0x3e, 0x81, 0x1e, 0x20, 0x3e,
  0x43, 0xf4, 0xe4, 0xbc, 0x68, 0xf8, 0xcf, 0x3d, 0xef, 0x20, 0x2e, 0x3e,
  0xb3, 0x7f, 0xad, 0x3e, 0xc5, 0xda, 0xc6, 0xbd, 0x75, 0xc8, 0xa8, 0xbc,
  0xb7, 0x5a, 0x84, 0x3e, 0x6d, 0x25, 0x97, 0xbe, 0x9d, 0x64, 0xff, 0xbd,
  0x3f, 0x0c, 0x43, 0x3e, 0xfb, 0x1f, 0x3e, 0x3e, 0x69, 0x54, 0x89, 0xbe,
  0x98, 0x73, 0xda, 0x3d, 0xcc, 0x3b, 0xa0, 0xbe, 0x8c, 0x6a, 0x95, 0xbe,
  0x6f, 0xc2, 0x49, 0xbe, 0x0a, 0xc1, 0x2d, 0x3e, 0x0c, 0xfe, 0x8a, 0xbe,
  0x69, 0x70, 0xa3, 0xbd, 0x6b, 0x21, 0x80, 0x3e, 0x17, 0x9e, 0x72, 0x3d,
  0x67, 0x7f, 0x72, 0xbe, 0x04, 0xc9, 0xcd, 0xbd, 0xa9, 0xbe, 0x9f, 0x3c,
  0x38, 0xe2, 0xf3, 0xbd, 0x53, 0xb2, 0xb1, 0x3e, 0xcc, 0x73, 0x23, 0xbc,
  0x41, 0x0e, 0x0b, 0x3e, 0x22, 0xe9, 0x84, 0xbd, 0x70, 0x59, 0xf7, 0x3d,
  0xfb, 0x26, 0x10, 0x3e, 0xd9, 0x6a, 0xd1, 0xbe, 0x22, 0xf6, 0x31, 0x3e,
  0x6d, 0xe5, 0x03, 0x3e, 0x02, 0x8f, 0xb7, 0x3d, 0x1b, 0x70, 0x04, 0xbe,
  0x40, 0x03, 0x51, 0xbe, 0x25, 0xad, 0x92, 0x3c, 0xe2, 0x95, 0xcd, 0x3c,
  0x76, 0xf0, 0x4a, 0x3e, 0x69, 0xcd, 0x5b, 0xbe, 0x1e, 0x5d, 0x86, 0xbd,
  0x24, 0x68, 0xc6, 0x3b, 0xe9, 0x1b, 0x9d, 0x3e, 0x07, 0x0f, 0xa1, 0xbe,
  0x6c, 0x16, 0x4a, 0x3e, 0x1b, 0x7d, 0x18, 0x3e, 0x5f, 0x53, 0x67, 0x3e,
  0x70, 0x31, 0x8b, 0x3d, 0xc3, 0xe5, 0x0e, 0x3e, 0x5f, 0x2a, 0x06, 0x3e,
  0xbb, 0x82, 0xb0, 0xbd, 0x1a, 0xcb, 0x0d, 0x3e, 0xd3, 0x12, 0xa7, 0xbe,
  0x14, 0x6d, 0x0a, 0x3e, 0x9b, 0xda, 0x9e, 0x3e, 0x44, 0x0a, 0xa7, 0x3c,
  0x2f, 0x4a, 0x68, 0x3e, 0xdc, 0xb1, 0x03, 0x3e, 0xaa, 0x21, 0x3e, 0x3e,
  0x05, 0x3b, 0x80, 0xbe, 0x18, 0xcc, 0x42, 0xbe, 0xaf, 0x7c, 0x83, 0xbe,
  0x7d, 0x62, 0x89, 0xbe, 0xbd, 0xd4, 0xe5, 0xbd, 0x6b, 0x64, 0x58, 0x3e,
  0xf5, 0x23, 0x2d, 0x3e, 0x7c, 0xa9, 0x78, 0x3b, 0xbf, 0xb6, 0xad, 0xbe,
  0x20, 0x05, 0x8e, 0x3d, 0xf9, 0xa5, 0x24, 0xbe, 0xd3, 0x52, 0xc4, 0xbd,
  0xf6, 0xc2, 0x21, 0x3e, 0xc9, 0x82, 0x10, 0xbe, 0x3b, 0x0f, 0x01, 0xbe,
  0xdc, 0x75, 0xe2, 0xbd, 0xde, 0x90, 0x92, 0xbe, 0xad, 0xde, 0x1d, 0x3e,
  0xad, 0xab, 0x88, 0xbe, 0xec, 0x6c, 0x39, 0x3e, 0x60, 0xf9, 0x54, 0x3e,
  0xcb, 0x2d, 0x42, 0xbd, 0x29, 0x29, 0x83, 0xbe, 0x60, 0x75, 0x1c, 0x3e,
  0x16, 0x08, 0x79, 0x3e, 0xd4, 0x02, 0x54, 0x3e, 0x80, 0x09, 0x8d, 0x3e,
  0x38, 0xdc, 0x55, 0x3e, 0x20, 0xc4, 0xb9, 0xbc, 0xc1, 0xc2, 0x40, 0xbe,
  0x39, 0xfa, 0x2c, 0x3e, 0x81, 0x4b, 0xa6, 0x3d, 0xc8, 0xce, 0x13, 0x3e,
  0xbd, 0x96, 0x7c, 0xbe, 0x7e, 0xd0, 0x44, 0x3e, 0x8f, 0x47, 0x25, 0x3b,
  0xdc, 0xc9, 0x46, 0x3e, 0x00, 0x5a, 0xfd, 0x3d, 0x85, 0x04, 0x1b, 0xbe,
  0x1c, 0xf1, 0x67, 0x3e, 0x47, 0x0c, 0x84, 0xbe, 0xc6, 0xe6, 0x0e, 0xbe,
  0x1f, 0xd6, 0x1d, 0xbd, 0xd7, 0x11, 0xd7, 0xbe, 0xf1, 0x37, 0xc8, 0x3d,
  0x1b, 0x0b, 0xe2, 0x3e, 0xa5, 0x53, 0x7f, 0xbe, 0xb8, 0xac, 0x78, 0x3e,
  0x1a, 0xba, 0x3c, 0x3e, 0x8c, 0xe4, 0x12, 0x3d, 0x4c, 0x12, 0x2a, 0xbe,
  0x5e, 0x9c, 0x3e, 0xbe, 0x76, 0x86, 0x71, 0xbe, 0xe2, 0x6a, 0x5a, 0x3e,
  0xbc, 0x2d, 0xab, 0x3e, 0x3e, 0x0e, 0x76, 0x3e, 0x25, 0xf9, 0x3f, 0xbd,
  0x46, 0x00, 0xd6, 0x3e, 0x3d, 0x7d, 0xd2, 0xbd, 0xb2, 0xb2, 0xd6, 0x3d,
  0xad, 0xee, 0xac, 0xbd, 0x96, 0xf2, 0x52, 0x3e, 0x73, 0x58, 0xe2, 0x3d,
  0x68, 0x25, 0xe3, 0xbe, 0x1c, 0xc8, 0x9d, 0xbe, 0x22, 0x7d, 0xa3, 0xbe,
  0x18, 0x0c, 0x91, 0xbe, 0xc1, 0x80, 0x5f, 0x3e, 0x93, 0x9d, 0x95, 0x3e,
  0x79, 0x7c, 0xae, 0x3c, 0xf4, 0x4f, 0xa1, 0x3b, 0x4a, 0x28, 0x07, 0x3f,
  0xec, 0xc9, 0xe0, 0x3c, 0x3e, 0x06, 0x54, 0x3e, 0xaa, 0x26, 0x34, 0xbe,
  0x8f, 0xa7, 0x93, 0x3e, 0x72, 0xcb, 0x26, 0x3e, 0xee, 0x4a, 0xdb, 0x3c,
  0x63, 0x54, 0xe6, 0x3d, 0xa2, 0x75, 0x9c, 0xbd, 0x0e, 0x7d, 0x3a, 0x3e,
  0xb4, 0x7d, 0x5c, 0xbe, 0x61, 0x51, 0x5b, 0xbc, 0x29, 0x94, 0x97, 0x3e,
  0xaf, 0xcd, 0x89, 0x3e, 0x8d, 0xa5, 0x27, 0x3e, 0x86, 0x05, 0x91, 0xbe,
  0xea, 0xde, 0x0e, 0xbe, 0x36, 0xa5, 0x23, 0xbe, 0x6d, 0xce, 0x63, 0x3e,
  0xe0, 0xdd, 0xc2, 0xbd, 0xaf, 0x8e, 0x47, 0x3e, 0x04, 0xa6, 0xb2, 0x3d,
  0xa6, 0x84, 0xad, 0x3e, 0x80, 0x71, 0x56, 0xbe, 0x01, 0x88, 0x18, 0xbe,
  0x75, 0x56, 0xe7, 0x3d, 0xb8, 0x3b, 0xcb, 0x3d, 0xf1, 0xdb, 0x65, 0x3d,
  0x36, 0xb1, 0x9c, 0x3d, 0x48, 0x12, 0x6b, 0x3e, 0xa7, 0x19, 0xa4, 0xbe,
  0xd7, 0x27, 0x72, 0xbe, 0xad, 0xc6, 0x31, 0x3e, 0xcb, 0xea, 0xde, 0x3e,
  0x14, 0xda, 0x1e, 0x3d, 0x7b, 0xa5, 0xea, 0x3d, 0x15, 0x9c, 0x35, 0xbe,
  0xba, 0x83, 0xf1, 0xbd, 0x4b, 0xdf, 0x9b, 0xbd, 0x8b, 0x45, 0x20, 0x3e,
  0xf7, 0x15, 0x14, 0x3e, 0x77, 0x33, 0x17, 0xbe, 0xa6, 0x30, 0x73, 0xbe,
  0x13, 0xb3, 0x92, 0xbe, 0xc7, 0x4b, 0xd6, 0x3d, 0x4f, 0x52, 0xb7, 0xbe,
  0x51, 0xff, 0x39, 0xbe, 0xf1, 0x69, 0x71, 0xbe, 0x67, 0x0a, 0x51, 0xbe,
  0xb7, 0x45, 0x36, 0x3e, 0x1a, 0x70, 0xb7, 0x3d, 0xe8, 0x07, 0x85, 0xbd,
  0x4b, 0xbf, 0xc1, 0x3d, 0x61, 0x82, 0x3f, 0xbd, 0x58, 0x22, 0x86, 0xbe,
  0x67, 0xa1, 0x0a, 0xbf, 0xf7, 0x05, 0x95, 0x3e, 0x70, 0x27, 0x13, 0x3e,
  0x81, 0x62, 0x43, 0x3c, 0x52, 0x8d, 0x89, 0xbe, 0xb8, 0xb7, 0x10, 0x3e,
  0x06, 0xdb, 0xa1, 0x3e, 0xa1, 0xaf, 0x86, 0x3e, 0x3e, 0xce, 0x59, 0xbe,
  0xd0, 0x7a, 0xae, 0x3e, 0x1c, 0x20, 0x83, 0xbe, 0x41, 0x32, 0x38, 0x3e,
  0x55, 0x00, 0xb3, 0x3e, 0xf9, 0xa4, 0x47, 0x3e, 0xb5, 0x86, 0xae, 0xbe,
  0x03, 0x1a, 0xa2, 0x3e, 0xff, 0xc3, 0x68, 0xbe, 0x08, 0x1c, 0x02, 0x3f,
  0xfd, 0x25, 0xd7, 0xbe, 0xdb, 0x10, 0xb7, 0x3e, 0x0e, 0x1a, 0x71, 0xbe,
  0xac, 0x99, 0xa3, 0x3e, 0xfc, 0x55, 0x77, 0xbe, 0x3a, 0x93, 0xd3, 0xbc,
  0xde, 0xeb, 0x1b, 0xbd, 0x45, 0x69, 0xb5, 0xbe, 0x6c, 0x05, 0x28, 0x3e,
  0xc0, 0xa0, 0x6f, 0xbe, 0xb2, 0x11, 0xa3, 0xbe, 0xb6, 0x23, 0xcb, 0xbd,
  0x4c, 0x05, 0x02, 0xbe, 0xf6, 0x1f, 0xd3, 0x3e, 0x29, 0x8c, 0xc5, 0x3e,
  0xc1, 0x11, 0xf6, 0xbe, 0x6e, 0xa8, 0x00, 0xbc, 0x29, 0x99, 0xaf, 0xbe,
  0x65, 0xcd, 0xc4, 0xbe, 0x84, 0x47, 0x06, 0xbf, 0xa9, 0x89, 0x63, 0xbe,
  0x7a, 0x0f, 0xb0, 0x3d, 0x6c, 0x38, 0x31, 0xbe, 0x50, 0xea, 0xdc, 0xbd,
  0x22, 0x43, 0x76, 0xbe, 0xed, 0xf6, 0x49, 0x3e, 0xf5, 0x70, 0x1a, 0x3a,
  0xdc, 0xe7, 0x20, 0xbe, 0x4d, 0xc2, 0x0a, 0xb9, 0x19, 0x67, 0xa3, 0x3e,
  0xd7, 0xac, 0xc7, 0x3e, 0x6c, 0xe0, 0xfe, 0x3e, 0xe0, 0xb9, 0xf0, 0x3d,
  0x98, 0xfa, 0x49, 0x3d, 0x87, 0x12, 0x2b, 0xbd, 0x45, 0x07, 0x30, 0xbe,
  0x95, 0x39, 0x8c, 0xbe, 0xf9, 0xdf, 0x2f, 0x3e, 0xfd, 0x37, 0x85, 0xbd,
  0x29, 0x7b, 0x17, 0x3c, 0x82, 0x9f, 0x80, 0xbe, 0x57, 0x0d, 0x7f, 0x3e,
  0xd7, 0xed, 0x8f, 0x3e, 0x42, 0xb2, 0xde, 0xbd, 0x18, 0x7e, 0x5c, 0x3e,
  0xda, 0xbc, 0x8f, 0xbe, 0x4e, 0x2b, 0x76, 0x3e, 0xd9, 0x49, 0x57, 0xbe,
  0x9a, 0x8a, 0xaf, 0x3e, 0x73, 0x74, 0x48, 0x3e, 0xb4, 0x7f, 0xb4, 0x3e,
  0xb3, 0x60, 0xc3, 0x3d, 0xc7, 0x7b, 0x75, 0xbe, 0x53, 0x96, 0x55, 0x3e,
  0x42, 0xd8, 0xa1, 0x3e, 0x84, 0x7e, 0xd3, 0xbd, 0xd5, 0xb9, 0x00, 0x3f,
  0xcf, 0x50, 0x6f, 0x3d, 0x0a, 0xb1, 0x5f, 0xbd, 0x83, 0x0b, 0x23, 0xbe,
  0x2b, 0x2c, 0x30, 0xbe, 0x86, 0xef, 0xbb, 0xbe, 0x16, 0xe0, 0x10, 0xbe,
  0xc5, 0x98, 0xdb, 0xbc, 0x4f, 0x33, 0xd8, 0x3d, 0x91, 0x9e, 0x61, 0x3e,
  0x67, 0x72, 0x34, 0xbd, 0xa9, 0xff, 0xba, 0xbd, 0x07, 0xb5, 0x2d, 0x3e,
  0x93, 0x99, 0x45, 0xbd, 0x22, 0xdf, 0x1e, 0x3e, 0x86, 0x35, 0xec, 0x3d,
  0xcf, 0xdb, 0x81, 0x3e, 0x65, 0x3c, 0xb8, 0x3e, 0xff, 0x07, 0x3c, 0xbe,
  0x11, 0x36, 0xbd, 0xbe, 0xe4, 0x5f, 0xfe, 0xbd, 0xf3, 0x03, 0x87, 0x3e,
  0x36, 0xa8, 0x99, 0xbe, 0x0f, 0x20, 0xc3, 0x3e, 0x11, 0x9c, 0xbe, 0xbe,
  0x79, 0x37, 0x05, 0x3d, 0xf8, 0x55, 0xdd, 0xbd, 0x20, 0x73, 0xe3, 0xbd,
  0x45, 0xf7, 0x5d, 0x3d, 0xe5, 0x67, 0x8f, 0xbe, 0x24, 0x8c, 0xa6, 0xbe,
  0x29, 0xc0, 0x9c, 0xbe, 0x2f, 0x61, 0xeb, 0x3d, 0xdd, 0xb8, 0x1c, 0x3d,
  0xbd, 0x20, 0xb8, 0x3e, 0x2b, 0x96, 0xa9, 0x3e, 0x19, 0x6b, 0x0f, 0xbc,
  0x53, 0x4a, 0x42, 0x3e, 0xa6, 0xb4, 0xbc, 0xbe, 0xa5, 0xb9, 0x32, 0x3d,
  0x01, 0xc4, 0x83, 0xbe, 0x9c, 0x77, 0x1e, 0xbe, 0x7b, 0x16, 0x88, 0xbe,
  0xce, 0xb7, 0x26, 0x3e, 0x96, 0x24, 0x4b, 0x3e, 0xdf, 0x45, 0x62, 0xbe,
  0xd0, 0x54, 0x97, 0x3e, 0x7b, 0x37, 0x58, 0xbe, 0x0c, 0x6b, 0xfe, 0x3d,
  0x67, 0x56, 0x2f, 0x3e, 0x50, 0x5e, 0x91, 0x3d, 0xd3, 0x37, 0xd7, 0xbd,
  0x87, 0x99, 0x3c, 0x3e, 0x58, 0x91, 0x60, 0xbd, 0x91, 0x52, 0x48, 0xbe,
  0x54, 0x79, 0x55, 0x3e, 0x77, 0x54, 0xef, 0xbe, 0x40, 0x64, 0xbc, 0x3e,
  0x45, 0xc0, 0x76, 0x3e, 0x9d, 0x20, 0x01, 0x3d, 0x90, 0x05, 0x2e, 0xbe,
  0xff, 0x36, 0xee, 0x3e, 0x34, 0xac, 0x4c, 0xbe, 0xe7, 0x3f, 0x68, 0x3e,
  0x05, 0x3b, 0x10, 0xbe, 0x23, 0x09, 0xcc, 0x3d, 0x36, 0xd6, 0xf9, 0x3e,
  0x14, 0xcf, 0xb1, 0x3e, 0xce, 0x53, 0x55, 0xbe, 0xd0, 0x20, 0xa6, 0xbe,
  0x19, 0x62, 0x9f, 0xbe, 0x79, 0x07, 0xa8, 0xbe, 0x39, 0x8c, 0xde, 0x3d,
  0x01, 0xc9, 0x25, 0xbe, 0x9c, 0xd4, 0x00, 0xbe, 0x5c, 0x98, 0xf1, 0x3d,
  0xcd, 0x55, 0xb2, 0x3e, 0x8c, 0x76, 0x26, 0xbd, 0x5a, 0xdd, 0xfe, 0xbd,
  0x32, 0x1a, 0x1f, 0x3e, 0x41, 0x11, 0x84, 0xbe, 0x86, 0xe6, 0x21, 0x3e,
  0xbc, 0xed, 0xb1, 0x3d, 0x8f, 0xb7, 0x8a, 0xbd, 0x3a, 0xfe, 0x08, 0xbd,
  0x89, 0x37, 0x3a, 0x3d, 0xce, 0xd1, 0x4a, 0xbd, 0xac, 0x5f, 0x0b, 0xbe,
  0xbe, 0xea, 0x55, 0xbe, 0xbd, 0xbe, 0x97, 0xbe, 0xf5, 0x0f, 0x2f, 0xbe,
  0x9e, 0xf5, 0x8c, 0xbe, 0xbf, 0xd7, 0x08, 0x3e, 0x1b, 0x71, 0x28, 0xbe,
  0x58, 0xdd, 0x8d, 0xbe, 0xd7, 0x38, 0xf3, 0x3c, 0x62, 0xc0, 0x91, 0xbe,
  0xa0, 0xa4, 0x32, 0x3e, 0xa7, 0x8a, 0xd2, 0x3e, 0x14, 0xcd, 0x3e, 0x3d,
  0x91, 0x22, 0xa0, 0xbe, 0x64, 0xbe, 0xa6, 0xbe, 0xb3, 0x68, 0xbc, 0x3d,
  0x4f, 0xb7, 0xf5, 0x3c, 0xa6, 0x40, 0x97, 0x3e, 0x9f, 0x80, 0x87, 0x3e,
  0x1d, 0x42, 0xa9, 0xbe, 0x52, 0x24, 0x54, 0xbe, 0x13, 0x74, 0x57, 0x3e,
  0xa0, 0x79, 0x9e, 0x3e, 0x83, 0xf4, 0x83, 0x3e, 0x7e, 0xf3, 0xbb, 0x3e,
  0xc2, 0xc2, 0x79, 0x3d, 0x38, 0x21, 0xa9, 0xbe, 0x6d, 0x73, 0x34, 0xbe,
  0x42, 0x45, 0x10, 0x3e, 0xb5, 0xea, 0xb0, 0x3e, 0x13, 0x16, 0x1e, 0x3e,
  0x87, 0x8b, 0x08, 0xbd, 0x97, 0xd1, 0x87, 0xbe, 0xf8, 0x47, 0xf0, 0x3d,
  0x57, 0xb3, 0xd4, 0xbd, 0x72, 0x32, 0x5c, 0x3e, 0x5a, 0xf1, 0xd2, 0xbc,
  0x48, 0x85, 0x8c, 0xbe, 0x9e, 0x66, 0x91, 0x3e, 0x76, 0x16, 0x63, 0x3e,
  0x1f, 0xf3, 0x1c, 0xbe, 0x69, 0x66, 0x00, 0x3e, 0x15, 0x96, 0x0c, 0x3e,
  0x6d, 0xce, 0x64, 0xbe, 0x5a, 0xb6, 0x89, 0xbd, 0x3e, 0x98, 0x5f, 0x3e,
  0xe9, 0x70, 0x2a, 0x3e, 0xcd, 0x7f, 0x89, 0xbd, 0x5b, 0xd4, 0xc9, 0x3e,
  0x60, 0x42, 0x8f, 0x3e, 0x10, 0xdf, 0x9d, 0xbb, 0x7d, 0xd1, 0xb1, 0x3d,
  0xc8, 0x18, 0xeb, 0x3e, 0x30, 0xe0, 0x49, 0x3d, 0x8b, 0xca, 0xc4, 0x3e,
  0x99, 0x38, 0x7c, 0xbd, 0x95, 0xa3, 0x76, 0x3e, 0xab, 0x36, 0x81, 0x3d,
  0x87, 0x75, 0x7b, 0xbd, 0x89, 0xe6, 0x61, 0xbd, 0x81, 0xa0, 0xa4, 0x3e,
  0x1d, 0xd8, 0x0d, 0x3e, 0x1d, 0x7f, 0xa9, 0xbe, 0x7d, 0xd7, 0xc2, 0x3d,
  0x3f, 0xbf, 0x9e, 0x3d, 0x3a, 0xe2, 0x60, 0xbd, 0x73, 0xea, 0x13, 0x3d,
  0x87, 0x66, 0xa2, 0x3c, 0x9a, 0x4d, 0x0d, 0xbe, 0x0c, 0x8b, 0x77, 0xbd,
  0xda, 0x28, 0x20, 0xbd, 0xb7, 0xc9, 0x70, 0x3e, 0xd9, 0xb0, 0xea, 0xbb,
  0xe7, 0x9b, 0xb0, 0x3e, 0x9e, 0x52, 0xa8, 0x3e, 0x51, 0xab, 0x9e, 0x3e,
  0xbf, 0x66, 0xca, 0xbe, 0x95, 0x71, 0xac, 0x3e, 0xbe, 0x53, 0x83, 0xbe,
  0x5d, 0xce, 0xd3, 0x3d, 0xc4, 0x60, 0xb8, 0xbe, 0x0e, 0xc9, 0xba, 0xbe,
  0xa9, 0x22, 0xe3, 0x3d, 0x2b, 0x48, 0xae, 0x3e, 0x4f, 0xbb, 0xa3, 0xbe,
  0x66, 0x8e, 0xf0, 0x3d, 0x5f, 0x3c, 0x92, 0x3e, 0xd8, 0x5f, 0x17, 0x3e,
  0x9d, 0x1a, 0x57, 0x3e, 0xa3, 0x1e, 0x8f, 0x3e, 0x5d, 0xe3, 0x57, 0xbe,
  0xb2, 0x84, 0xb3, 0xbe, 0x81, 0x71, 0x04, 0xbe, 0xee, 0x9c, 0x89, 0x3e,
  0x2e, 0x26, 0x0f, 0xbe, 0x2e, 0xe4, 0x97, 0xbe, 0xc2, 0xa8, 0xaa, 0xbe,
  0x77, 0x49, 0x05, 0x3f, 0xa6, 0x62, 0xa5, 0xbe, 0xa9, 0xa8, 0xd4, 0x3e,
  0xda, 0x5c, 0x0a, 0xbf, 0x00, 0x7b, 0x70, 0xbe, 0x2d, 0xf4, 0xbb, 0xbd,
  0xc9, 0xb6, 0x96, 0x3d, 0xe7, 0x55, 0x78, 0xbe, 0xd4, 0x56, 0xa7, 0xbe,
  0x19, 0xf5, 0xd4, 0x3e, 0x49, 0x75, 0xc0, 0x3e, 0x49, 0x2f, 0xa7, 0xbe,
  0x12, 0x23, 0x62, 0x3e, 0xff, 0xed, 0xf5, 0xbe, 0x02, 0xcb, 0x12, 0x3e,
  0x08, 0xed, 0xf8, 0x3d, 0x59, 0x6b, 0x71, 0xbe, 0x38, 0x24, 0xa6, 0x3e,
  0xcf, 0x07, 0xf8, 0x3e, 0xa6, 0x41, 0x64, 0xbe, 0xe7, 0xcd, 0xf1, 0x3d,
  0x16, 0x95, 0x48, 0xbe, 0xc2, 0x89, 0x0a, 0x3d, 0x28, 0x74, 0x94, 0x3d,
  0x26, 0x02, 0x68, 0x3e, 0xa9, 0xff, 0xb2, 0x3e, 0x9c, 0x06, 0x1b, 0xbe,
  0xae, 0x81, 0x82, 0x3d, 0xc5, 0x46, 0xf3, 0xbd, 0x22, 0x00, 0xeb, 0xbc,
  0x27, 0x2e, 0xaf, 0x3e, 0xe5, 0x8b, 0x45, 0x3e, 0x3f, 0x0c, 0xad, 0x3d,
  0x3b, 0x2b, 0xd6, 0xbe, 0xb2, 0x3d, 0x78, 0xbe, 0x94, 0x10, 0x0d, 0xbf,
  0xb3, 0xf8, 0xa3, 0xbe, 0xa4, 0x47, 0xab, 0x3d, 0x9d, 0x81, 0xcf, 0xbd,
  0x27, 0x6f, 0xa9, 0x3e, 0x85, 0x18, 0xb1, 0xbe, 0x02, 0xe2, 0xb0, 0xbe,
  0xe4, 0x00, 0x04, 0xbf, 0xb1, 0x71, 0xc3, 0xbe, 0x5c, 0xa9, 0x2d, 0x3f,
  0xc9, 0x36, 0x92, 0x3e, 0xe7, 0x2f, 0x09, 0x3f, 0x8b, 0x58, 0x43, 0x3f,
  0xd7, 0x1f, 0xad, 0xbd, 0xc5, 0x7a, 0xcd, 0x3e, 0x03, 0x23, 0xf1, 0xba,
  0x40, 0x01, 0x41, 0xbf, 0x9d, 0xdf, 0x2c, 0x3e, 0x75, 0xc4, 0x94, 0xbd,
  0x41, 0xc8, 0xeb, 0x3e, 0x31, 0x78, 0x73, 0x3e, 0xdb, 0xa4, 0x8d, 0x3e,
  0x7d, 0xa8, 0x89, 0xbe, 0x0d, 0x81, 0x64, 0xbd, 0xff, 0x87, 0x5c, 0x3e,
  0xec, 0x53, 0x22, 0x3f, 0x8b, 0x10, 0xbd, 0xbd, 0x7d, 0x68, 0x69, 0x3e,
  0x3b, 0xef, 0x9d, 0xbe, 0x45, 0x7b, 0x1e, 0x3e, 0x36, 0x56, 0xaf, 0xbe,
  0x85, 0x61, 0x85, 0xba, 0xc6, 0x32, 0xd0, 0x3e, 0x09, 0xe4, 0xc3, 0xbe,
  0x3b, 0x29, 0xb4, 0xbd, 0xee, 0x7b, 0xec, 0xbc, 0xa0, 0x3d, 0x80, 0xbe,
  0x79, 0x04, 0x04, 0x3f, 0xc6, 0x5d, 0xd7, 0x3d, 0xdc, 0x29, 0x9e, 0x3e,
  0x4f, 0x8f, 0x51, 0xbf, 0xaf, 0x2e, 0xea, 0x3d, 0xe9, 0x7b, 0x48, 0x3e,
  0xdd, 0x4b, 0xc8, 0xbe, 0xc5, 0xfc, 0x13, 0xbe, 0xa9, 0x5b, 0x1e, 0xbe,
  0xc9, 0x4b, 0xef, 0xbe, 0xd0, 0xa9, 0xca, 0xbd, 0x71, 0xc0, 0xc3, 0x3e,
  0xab, 0x6d, 0xfe, 0xbc, 0x4e, 0x07, 0x8f, 0x3e, 0x8d, 0xe9, 0x69, 0x3e,
  0xce, 0x9d, 0x56, 0x3e, 0x32, 0x8c, 0xbe, 0xbe, 0xc9, 0xf2, 0xf5, 0x3e,
  0xe4, 0xc8, 0x3d, 0xbf, 0x92, 0x8f, 0xcc, 0xbd, 0xa5, 0x56, 0xdc, 0x3e,
  0x96, 0xdd, 0x19, 0x3f, 0x65, 0x97, 0xa4, 0x3d, 0xd1, 0xe9, 0x07, 0xbe,
  0x6f, 0xaf, 0x02, 0x3d, 0x2d, 0x11, 0xea, 0x3e, 0xdc, 0xe0, 0xa4, 0xbe,
  0xcf, 0x5d, 0x4a, 0x3d, 0xd7, 0xdf, 0xe8, 0xbe, 0x9d, 0xea, 0x1e, 0x3f,
  0x91, 0xac, 0xa5, 0xbc, 0x5f, 0x88, 0x5c, 0xbe, 0x48, 0x58, 0x20, 0x3f,
  0x1c, 0xab, 0x33, 0x3e, 0xdc, 0x9f, 0x54, 0xbd, 0x57, 0xb9, 0x21, 0x3e,
  0x3d, 0x7a, 0x05, 0xbe, 0xc7, 0x5b, 0xff, 0xbc, 0xca, 0xd8, 0x64, 0x3d,
  0xf0, 0x24, 0x3d, 0x3d, 0xfa, 0xc4, 0xd2, 0x3e, 0x21, 0x7c, 0xe1, 0xbe,
  0xb7, 0x5c, 0xcf, 0xbe, 0x08, 0xe7, 0x76, 0x3e, 0xc1, 0x5e, 0xed, 0xbe,
  0x44, 0x42, 0x60, 0xbe, 0xe3, 0x77, 0x16, 0x3e, 0xa1, 0xf2, 0x04, 0xbf,
  0x1a, 0x24, 0x5e, 0xbd, 0x1d, 0x91, 0xac, 0xbe, 0xcb, 0x57, 0x08, 0x3e,
  0x7a, 0x3c, 0x75, 0x3e, 0x96, 0x39, 0xf4, 0xbe, 0xdf, 0xf5, 0x41, 0xbd,
  0x74, 0x0d, 0x55, 0xbe, 0x97, 0x0a, 0xbc, 0x3e, 0x11, 0xa3, 0x3d, 0x3b,
  0x93, 0xbc, 0x07, 0x3f, 0xc6, 0xa7, 0xda, 0x3d, 0xeb, 0x6c, 0x66, 0x3e,
  0x25, 0x95, 0x82, 0xbd, 0x36, 0x48, 0x07, 0x3e, 0xe2, 0x7e, 0x1e, 0xbd,
  0x06, 0x85, 0xd4, 0x3d, 0xef, 0x36, 0x80, 0x3e, 0x3b, 0x4d, 0xf1, 0xbe,
  0x37, 0xfc, 0x29, 0x3e, 0xde, 0x89, 0x26, 0xbe, 0xec, 0x69, 0x68, 0x3d,
  0x66, 0x8b, 0x97, 0x3e, 0xb5, 0xb4, 0x23, 0xbe, 0x1d, 0xe7, 0xd8, 0xbd,
  0xc9, 0xab, 0x97, 0xbe, 0x2d, 0xd9, 0x66, 0x3e, 0xdb, 0x39, 0xe3, 0xbe,
  0xdf, 0x48, 0x8b, 0xbe, 0xc0, 0x74, 0x6e, 0xbe, 0x4e, 0xb5, 0xaa, 0x3e,
  0xa0, 0x7c, 0x0e, 0x3e, 0x02, 0x22, 0xed, 0x3d, 0x67, 0xe6, 0xa1, 0x3e,
  0x5b, 0x1e, 0x0c, 0x3e, 0x93, 0x1c, 0xbc, 0x3d, 0x3e, 0x69, 0x8b, 0x3e,
  0xc8, 0xa1, 0x0d, 0x3e, 0x0a, 0xc4, 0x96, 0xbe, 0xc1, 0x93, 0x33, 0xbe,
  0x5c, 0x15, 0x3e, 0x3d, 0x56, 0x51, 0xd5, 0x3d, 0xa7, 0x62, 0xae, 0xbc,
  0x9c, 0x72, 0x11, 0x3e, 0xe6, 0xd3, 0x9d, 0x3d, 0x4c, 0x41, 0x8b, 0x3e,
  0xe3, 0x52, 0x03, 0xbe, 0x06, 0xa6, 0xf9, 0xbd, 0xd8, 0x6b, 0xd7, 0x3d,
  0xc8, 0x9e, 0xfc, 0xbd, 0x4e, 0x43, 0x61, 0x3e, 0xe9, 0xb3, 0x4d, 0x3e,
  0x45, 0xff, 0xbd, 0x3d, 0xf9, 0xec, 0xe5, 0xbc, 0x49, 0x84, 0xad, 0xbe,
  0x72, 0x62, 0xa1, 0xbe, 0x75, 0xcb, 0x84, 0xbe, 0x8a, 0x5b, 0xb8, 0x3d,
  0x45, 0x31, 0x6d, 0x3d, 0xed, 0xb0, 0xa7, 0xbe, 0x5a, 0xa6, 0xde, 0x3e,
  0x41, 0x92, 0x82, 0x3e, 0x24, 0x3f, 0x70, 0x3e, 0x28, 0xad, 0x12, 0xbd,
  0x70, 0xb7, 0x86, 0xbe, 0xbd, 0xa0, 0x8c, 0xbe, 0x6b, 0x00, 0xed, 0xbe,
  0xff, 0xc2, 0xc9, 0x3e, 0x7b, 0x4f, 0xb3, 0xbe, 0x6a, 0x71, 0x4f, 0xbe,
  0x94, 0xd9, 0x18, 0x3e, 0xb8, 0xed, 0x83, 0x3e, 0x5a, 0xf3, 0xd3, 0x3e,
  0x31, 0xba, 0x04, 0x3e, 0xc3, 0xb4, 0x9c, 0x3e, 0x2e, 0x45, 0x5a, 0x3e,
  0x1d, 0xad, 0x94, 0x3e, 0xe9, 0x67, 0x9d, 0x3e, 0x28, 0x84, 0x01, 0xbc,
  0xe5, 0xcb, 0xf5, 0x3d, 0xbb, 0x1a, 0x3d, 0x3e, 0x7c, 0x3b, 0xe8, 0xbd,
  0x69, 0x14, 0x85, 0x3e, 0x86, 0xf8, 0xfc, 0x3e, 0x30, 0xc9, 0x8d, 0x3a,
  0x15, 0x5e, 0x88, 0x3e, 0x0e, 0x58, 0x36, 0x3e, 0x0c, 0x51, 0xae, 0xbd,
  0xcf, 0x42, 0xbf, 0xbe, 0xa4, 0xa6, 0x9d, 0x3e, 0x2c, 0xe4, 0xe4, 0x3e,
  0x57, 0x25, 0x29, 0x3d, 0x36, 0xde, 0x49, 0x3e, 0x36, 0x2d, 0x20, 0x3d,
  0xfd, 0xea, 0x26, 0xbe, 0x06, 0x4c, 0xec, 0xba, 0xe0, 0x84, 0x3b, 0xbe,
  0x3c, 0x37, 0x76, 0x3e, 0x91, 0x7b, 0x87, 0xbe, 0x32, 0x2d, 0xe8, 0xbc,
  0x7f, 0x3d, 0x4d, 0x3e, 0xea, 0x6c, 0x2c, 0xbe, 0xbd, 0xd3, 0x49, 0x3e,
  0x91, 0x35, 0x64, 0xbd, 0x98, 0x57, 0x2c, 0x3e, 0x74, 0x15, 0xb3, 0xbe,
  0x94, 0x79, 0x77, 0xbe, 0x2b, 0x6f, 0xb6, 0x3d, 0x69, 0x50, 0x8a, 0xbd,
  0x19, 0xfd, 0x0c, 0xbe, 0x22, 0x20, 0x03, 0x3f, 0x20, 0x40, 0xb8, 0xbe,
  0x8b, 0xc8, 0xf0, 0x3d, 0x25, 0x5b, 0x38, 0x3e, 0xaa, 0xbe, 0xff, 0xff,
  0x04, 0x00, 0x00, 0x00, 0x00, 0x30, 0x00, 0x00, 0xfd, 0xbb, 0xd1, 0xbc,
  0xf9, 0x2f, 0x88, 0xbd, 0xb3, 0xf4, 0x81, 0xbc, 0x65, 0xba, 0xc3, 0xbd,
  0xfb, 0x0f, 0xb6, 0xbd, 0x29, 0xae, 0xaa, 0xbd, 0x37, 0xad, 0x96, 0x3d,
  0xe4, 0x6b, 0xa5, 0x3c, 0x91, 0x48, 0x10, 0xbe, 0x55, 0xc5, 0x93, 0x3d,
  0xdd, 0xf8, 0xbb, 0xbd, 0x0f, 0xe2, 0x6c, 0xbd, 0x13, 0xd0, 0xdc, 0xbc,
  0x12, 0x9a, 0xc4, 0xbd, 0x88, 0xeb, 0xd0, 0xbc, 0xea, 0x7b, 0x4c, 0xbd,
  0x24, 0xe8, 0xc1, 0xbd, 0x36, 0x23, 0x8e, 0x3d, 0x8a, 0xea, 0x63, 0x3d,
  0x11, 0xeb, 0xc2, 0xbd, 0x5d, 0x9d, 0xca, 0xbd, 0xe3, 0xca, 0x0d, 0xbd,
  0x91, 0x3d, 0x18, 0xbd, 0xcc, 0x0b, 0xf0, 0x3d, 0xfc, 0x09, 0x0f, 0xbe,
  0xd4, 0x55, 0x89, 0x3d, 0x96, 0x48, 0xcb, 0x3d, 0x54, 0xef, 0xbb, 0x3d,
  0x9e, 0xaa, 0x6a, 0xbd, 0xde, 0x2d, 0x08, 0xbd, 0x0c, 0x77, 0xec, 0xbd,
  0xc3, 0x36, 0x90, 0x3d, 0x33, 0xcb, 0xef, 0xbd, 0x7a, 0x7c, 0xbf, 0xbb,
  0xa6, 0x82, 0x1d, 0xbe, 0xc1, 0xf7, 0xcd, 0xbd, 0xc5, 0xfa, 0x92, 0xbd,
  0x6e, 0xd5, 0xb6, 0xbd, 0x9d, 0x6b, 0xb3, 0xbd, 0x1d, 0x09, 0x26, 0x3d,
  0x21, 0x9f, 0x58, 0x3c, 0xc4, 0x84, 0x22, 0xbe, 0xda, 0xb3, 0x30, 0xbd,
  0x30, 0x76, 0xd6, 0x3c, 0xcf, 0x32, 0x0a, 0xbe, 0x05, 0x40, 0xc8, 0xbd,
  0x83, 0x41, 0xcc, 0x3d, 0xcc, 0x1a, 0xfd, 0x3c, 0xc8, 0x06, 0x1f, 0x3e,
  0xa7, 0x8b, 0x73, 0xbc, 0xc0, 0xc5, 0xb1, 0x3d, 0xf0, 0xba, 0xdd, 0x3d,
  0xa7, 0x2d, 0xba, 0xbd, 0xe8, 0x99, 0x95, 0xbd, 0xba, 0x00, 0xb9, 0xbd,
  0x85, 0xbd, 0x24, 0x3e, 0x4c, 0x67, 0x6c, 0x3d, 0xd0, 0xcb, 0xa3, 0x3d,
  0x2f, 0xca, 0x82, 0x3d, 0xef, 0xfc, 0x0d, 0xbd, 0x28, 0x22, 0x5b, 0xbc,
  0xcb, 0xc0, 0x61, 0xbd, 0x65, 0xbd, 0xf6, 0xbd, 0xf6, 0x0e, 0xd8, 0x3d,
  0x8a, 0x78, 0x14, 0x3e, 0xa5, 0xa2, 0xb3, 0x3c, 0x06, 0xf0, 0xaa, 0x3d,
  0xd7, 0xf3, 0xb6, 0x3c, 0x34, 0xd5, 0x2a, 0xbd, 0x4b, 0xd4, 0x1d, 0xbd,
  0x5b, 0xa9, 0x68, 0xbd, 0x13, 0xe6, 0xda, 0x3d, 0xfa, 0x48, 0x24, 0x3d,
  0xbf, 0xce, 0x9d, 0xbd, 0xf6, 0xe2, 0x0a, 0x3e, 0xa7, 0xc3, 0x18, 0xbe,
  0xd5, 0x98, 0x95, 0x3d, 0x96, 0x63, 0x47, 0xbe, 0xcd, 0x37, 0x14, 0xbc,
  0x6d, 0xb6, 0x59, 0x3c, 0xa3, 0x45, 0x02, 0x3d, 0xa5, 0xa1, 0x7b, 0xbd,
  0x28, 0x19, 0x6a, 0x3d, 0x0d, 0xa4, 0x89, 0xbd, 0x20, 0x50, 0x01, 0x3e,
  0x5c, 0xd1, 0x01, 0xbe, 0x1d, 0xfe, 0xbf, 0xbd, 0xe0, 0x00, 0x31, 0x3e,
  0x30, 0x08, 0x03, 0xbe, 0xc5, 0x27, 0x93, 0x3d, 0xd6, 0xd1, 0x76, 0xbd,
  0x81, 0x59, 0x95, 0x3d, 0x66, 0x3c, 0x0a, 0xbe, 0xd3, 0x4b, 0xa2, 0xbc,
  0x33, 0x0d, 0x34, 0x3d, 0x1e, 0xb6, 0x1f, 0x3d, 0x8d, 0x4f, 0xc4, 0xbe,
  0xf0, 0xf6, 0x8a, 0x3e, 0xb7, 0x2e, 0xe9, 0x3e, 0x39, 0x96, 0x08, 0x3f,
  0x10, 0x3b, 0xfd, 0xbe, 0x46, 0xf7, 0xb1, 0x3e, 0x76, 0x1b, 0xf2, 0x3d,
  0xc3, 0xc0, 0x6b, 0x3d, 0x9d, 0x1c, 0x9b, 0xbe, 0x2c, 0xc3, 0x1e, 0x3e,
  0x8c, 0x53, 0xe6, 0x3e, 0xe0, 0xb5, 0x0c, 0xbf, 0xc7, 0xdf, 0x02, 0x3f,
  0xf7, 0x8b, 0x0f, 0x3f, 0xab, 0x7a, 0x23, 0xbf, 0xc2, 0xc9, 0x16, 0xbf,
  0x7e, 0x0c, 0x32, 0x3d, 0x18, 0x7b, 0xd3, 0xbe, 0x4c, 0xb2, 0xb4, 0x3d,
  0xac, 0xc5, 0xac, 0xbe, 0x76, 0xc3, 0x9d, 0x3e, 0x15, 0xa7, 0xea, 0x3e,
  0xcb, 0x6a, 0xf1, 0xbe, 0xd7, 0x92, 0xb3, 0x3e, 0x51, 0xc8, 0x6c, 0x3c,
  0xea, 0x40, 0x0d, 0x3f, 0x0d, 0xbd, 0xd7, 0xbe, 0xa4, 0x92, 0x43, 0xbe,
  0xc3, 0xc1, 0xee, 0x3d, 0xcd, 0x7a, 0x9a, 0x3e, 0xbe, 0x50, 0xf9, 0x3e,
  0x66, 0x6e, 0x8c, 0x3d, 0x75, 0xf1, 0x29, 0xbf, 0x6a, 0x31, 0x21, 0xbf,
  0x76, 0x2f, 0x9f, 0x3c, 0x94, 0xe3, 0x7f, 0x3e, 0x36, 0x6f, 0x97, 0x3e,
  0x01, 0x18, 0x86, 0xbe, 0x3a, 0x39, 0x28, 0x3e, 0x53, 0xd8, 0xc8, 0xbe,
  0xf5, 0xb0, 0xe0, 0x3e, 0xfd, 0x90, 0x74, 0xbe, 0xda, 0x8c, 0xca, 0x3e,
  0x6b, 0xac, 0x9e, 0x3c, 0xc4, 0xcd, 0x22, 0xbf, 0xa6, 0x2a, 0x45, 0x3e,
  0x60, 0x83, 0x24, 0x3f, 0x62, 0x9a, 0x31, 0x3f, 0x81, 0xd2, 0x0f, 0x3f,
  0x53, 0xd8, 0x4e, 0x3e, 0xed, 0x8d, 0x1a, 0xbf, 0x11, 0x2b, 0xaa, 0xbe,
  0x70, 0x27, 0xd9, 0x3d, 0xea, 0x0b, 0x15, 0x3e, 0xf6, 0xa4, 0x86, 0x3e,
  0x34, 0x3c, 0xc8, 0xbe, 0x90, 0x6c, 0x92, 0x3e, 0x59, 0x38, 0xda, 0xbe,
  0x3a, 0xac, 0x1e, 0x3d, 0x38, 0x31, 0x58, 0xbb, 0x02, 0xca, 0x82, 0x3e,
  0xe1, 0xc3, 0x8b, 0x3e, 0x4f, 0xf2, 0x66, 0xbd, 0x79, 0x77, 0x1a, 0xbf,
  0x14, 0xf8, 0x32, 0x3e, 0xd7, 0x13, 0xf5, 0x3d, 0x7c, 0x24, 0xd3, 0xbe,
  0x79, 0x88, 0xcd, 0x3e, 0x24, 0xd9, 0x07, 0xbf, 0xc2, 0x17, 0x96, 0x3e,
  0xe3, 0xba, 0xfe, 0xbd, 0x3f, 0xb1, 0x5a, 0xbf, 0x4f, 0x24, 0x57, 0xbe,
  0x91, 0xf5, 0x00, 0x3f, 0x39, 0xdc, 0x99, 0xbe, 0x19, 0x96, 0xc1, 0xbe,
  0x4c, 0xf5, 0x83, 0x3e, 0xc6, 0x0d, 0x2e, 0x3e, 0x47, 0x2f, 0x99, 0xbd,
  0x59, 0x47, 0x2d, 0xbe, 0x74, 0xce, 0xe8, 0xbe, 0x6e, 0x4e, 0x24, 0xbe,
  0x14, 0xab, 0x67, 0xbd, 0x8d, 0x20, 0x1a, 0xbf, 0x95, 0xf9, 0x1e, 0xbf,
  0xd0, 0x24, 0xaf, 0x3d, 0x62, 0xf7, 0x1a, 0x3f, 0x68, 0xb5, 0x24, 0x3f,
  0x65, 0x2b, 0xfc, 0x3e, 0xc8, 0x20, 0x36, 0x3f, 0x4b, 0xb4, 0xfc, 0xbe,
  0x58, 0x4d, 0x26, 0xbe, 0x2f, 0x6a, 0x4b, 0x3f, 0xd9, 0xd9, 0x1f, 0x3e,
  0x55, 0x90, 0x86, 0x3c, 0x85, 0x67, 0x11, 0xbf, 0xe7, 0xa1, 0xce, 0x3c,
  0x2c, 0x96, 0x51, 0xbd, 0x15, 0x0f, 0x85, 0xbd, 0x33, 0x15, 0xbe, 0xbe,
  0xa2, 0x0e, 0x81, 0xbe, 0x0e, 0xad, 0x71, 0xbe, 0xe2, 0x22, 0xf1, 0xbd,
  0x34, 0x2f, 0x89, 0xbe, 0xef, 0xc6, 0x88, 0x3e, 0xfb, 0xa3, 0x7d, 0xbe,
  0xc3, 0xb4, 0x4e, 0xbe, 0xf9, 0xf1, 0x42, 0xbd, 0xf2, 0xb5, 0xc0, 0xbe,
  0x57, 0xd4, 0x0d, 0xbe, 0xf7, 0xbb, 0xc7, 0x3e, 0x46, 0x40, 0x95, 0xbe,
  0x9f, 0xb3, 0x30, 0xbd, 0xe6, 0x3f, 0x58, 0xbe, 0xbd, 0x0a, 0x3c, 0x3e,
  0x8a, 0x3c, 0x4f, 0xbd, 0x1b, 0x53, 0x85, 0x3e, 0xbe, 0xfc, 0xae, 0xbc,
  0x5f, 0x67, 0x35, 0xbd, 0x7c, 0x2e, 0x95, 0x3c, 0xf6, 0x0e, 0x25, 0xbc,
  0x4a, 0x39, 0x91, 0xbe, 0x48, 0xe5, 0x97, 0xbe, 0x9f, 0x27, 0x7c, 0x3e,
  0xa2, 0xe7, 0xc2, 0xbd, 0x9d, 0xdd, 0x23, 0x3d, 0xaa, 0x6f, 0xb3, 0xbe,
  0xb1, 0x2a, 0x24, 0x3e, 0x51, 0x6a, 0xae, 0xbd, 0xc5, 0xc5, 0xe9, 0x3d,
  0xd9, 0xa9, 0x93, 0x3e, 0x05, 0xa2, 0xc2, 0xbe, 0x53, 0x6c, 0x49, 0xbe,
  0x93, 0x30, 0x9a, 0xbe, 0xa4, 0x30, 0xf1, 0x3e, 0xf5, 0x57, 0x20, 0x3e,
  0x18, 0xf3, 0x41, 0x3e, 0xa4, 0xa6, 0x43, 0x3e, 0x72, 0x71, 0x95, 0x3e,
  0x82, 0x54, 0xe5, 0x3d, 0x8d, 0x2a, 0xa2, 0x3d, 0xf4, 0xab, 0xaf, 0x3e,
  0xe8, 0x08, 0xb2, 0x3e, 0xef, 0x9b, 0x0e, 0x3e, 0xbb, 0xc9, 0xaf, 0x3b,
  0x38, 0xf9, 0x22, 0xbe, 0x9d, 0xcc, 0xe6, 0x3e, 0xdb, 0x0c, 0x95, 0x3c,
  0xf1, 0x12, 0xde, 0x3c, 0xe7, 0x97, 0x2f, 0xbe, 0xb5, 0x4d, 0xd1, 0xbe,
  0x45, 0xab, 0xd0, 0xbd, 0x3f, 0x54, 0x9e, 0x3e, 0xc1, 0xa0, 0x7c, 0x3d,
  0xe3, 0x41, 0x87, 0xbe, 0x79, 0x2d, 0x8c, 0xbe, 0x79, 0x7d, 0xe1, 0xbe,
  0x6f, 0xe3, 0xae, 0xbd, 0xe5, 0x2a, 0x91, 0x3e, 0xcb, 0xc7, 0xc5, 0x3c,
  0x5c, 0x69, 0x71, 0x3d, 0x0e, 0xed, 0x9c, 0x3e, 0x75, 0x55, 0xaf, 0x3e,
  0x2b, 0x71, 0xba, 0xbe, 0xe7, 0x64, 0x98, 0xbd, 0x36, 0x45, 0x1c, 0xbe,
  0x74, 0x59, 0x80, 0xbd, 0xd7, 0xaf, 0xfe, 0xbc, 0x92, 0xd9, 0x95, 0x3e,
  0xf8, 0xad, 0x5c, 0x3e, 0x24, 0x51, 0x55, 0x3e, 0x56, 0x26, 0x37, 0xbe,
  0x28, 0x95, 0xe7, 0x3d, 0xb9, 0xbe, 0x18, 0xbe, 0x43, 0xec, 0x68, 0x3d,
  0x1c, 0x98, 0xb6, 0x3b, 0xdf, 0x2b, 0x6b, 0x3e, 0x5a, 0x68, 0x04, 0x3d,
  0x9e, 0x68, 0x81, 0xbd, 0xd2, 0xec, 0x1c, 0xbe, 0x26, 0x38, 0xc8, 0xbe,
  0x5c, 0x47, 0x67, 0x3d, 0xcc, 0x73, 0x09, 0xbe, 0xde, 0x87, 0xa3, 0x3e,
  0x23, 0x37, 0x28, 0x3e, 0x62, 0x28, 0x81, 0x3e, 0x2f, 0x8b, 0xc2, 0x3e,
  0x0e, 0x53, 0x7f, 0x3e, 0xb6, 0x60, 0x5c, 0xbd, 0x47, 0xd7, 0x17, 0x3e,
  0xf2, 0xd6, 0xaa, 0x3e, 0x39, 0xa7, 0xb6, 0x3d, 0x4d, 0x53, 0x45, 0xbe,
  0x59, 0x37, 0x3c, 0xbe, 0xbf, 0xd9, 0xfd, 0x3d, 0x05, 0xf4, 0xff, 0x3d,
  0x20, 0xaa, 0x3e, 0x3e, 0x10, 0x84, 0x05, 0x3e, 0x5b, 0x46, 0x8c, 0x3c,
  0x9c, 0x5e, 0x88, 0x3d, 0x6a, 0xd6, 0x01, 0xbe, 0x38, 0xa4, 0x4b, 0xbe,
  0xa7, 0x7d, 0x19, 0x3d, 0xd2, 0x7f, 0x2f, 0xbd, 0x75, 0x70, 0x7d, 0xbd,
  0xbe, 0xd6, 0x35, 0xbc, 0x11, 0x1d, 0xe6, 0xbc, 0x0c, 0xbe, 0x36, 0xbe,
  0x27, 0x5d, 0x77, 0xbe, 0x62, 0xe4, 0x10, 0xbc, 0x5d, 0xec, 0x26, 0xbe,
  0x31, 0xf0, 0x0e, 0xbd, 0x4a, 0x35, 0x9f, 0xbd, 0x3b, 0x16, 0xf1, 0x3b,
  0x6a, 0x84, 0x04, 0xbe, 0x7a, 0x32, 0x20, 0x3d, 0x31, 0x2a, 0xf1, 0x3c,
  0x6f, 0xfa, 0x22, 0x3c, 0x08, 0x4f, 0x41, 0xbb, 0xab, 0x51, 0x8f, 0x3d,
  0x5a, 0xfb, 0x15, 0x3e, 0x66, 0x33, 0x40, 0xbe, 0x64, 0xf8, 0xbd, 0x3c,
  0x12, 0x1e, 0x54, 0xbe, 0x30, 0xc0, 0xc2, 0xbd, 0x2d, 0x93, 0x65, 0xbe,
  0x19, 0xf7, 0x2b, 0xbe, 0xb9, 0x07, 0x7c, 0x3e, 0xdc, 0x3e, 0x9e, 0xbd,
  0xba, 0x92, 0x64, 0xbe, 0xee, 0x41, 0xa3, 0x3d, 0x54, 0x5b, 0x1e, 0x3d,
  0x85, 0x59, 0x0d, 0x3e, 0x88, 0x41, 0xc3, 0x3c, 0x94, 0xdd, 0x19, 0x3e,
  0x92, 0xb8, 0x5a, 0x3e, 0xe1, 0x0c, 0x08, 0x3d, 0xff, 0xa1, 0x1d, 0xbe,
  0x35, 0xad, 0x71, 0x3d, 0x62, 0xbe, 0x05, 0x3e, 0xed, 0xf2, 0x49, 0x3d,
  0xbb, 0x55, 0x3b, 0x3e, 0x6c, 0xb5, 0x89, 0x3d, 0x73, 0x64, 0x32, 0x3e,
  0xe2, 0x76, 0x00, 0xbe, 0x32, 0xec, 0x02, 0xbd, 0x03, 0x4f, 0x1d, 0x3d,
  0x3e, 0x8f, 0x5d, 0x3d, 0x2a, 0x45, 0xcb, 0xbc, 0x40, 0x25, 0xce, 0xbd,
  0x22, 0x1c, 0x94, 0xbd, 0x3f, 0xca, 0x49, 0xbe, 0x2e, 0x67, 0x06, 0xbe,
  0x86, 0xab, 0x0d, 0x3e, 0x2c, 0xb9, 0x49, 0x3e, 0x6d, 0x85, 0xba, 0x3d,
  0xe6, 0xb9, 0x98, 0xbd, 0xc8, 0x74, 0xaa, 0x3d, 0x7a, 0x33, 0xac, 0x3d,
  0xbc, 0x2e, 0x2f, 0x3e, 0x34, 0x60, 0x0c, 0x3e, 0x77, 0xbb, 0x36, 0xbe,
  0x49, 0x99, 0x2c, 0xbe, 0xe3, 0x98, 0xb1, 0x3d, 0x8c, 0xb0, 0x29, 0x3e,
  0x2b, 0x41, 0x14, 0x3d, 0xb9, 0x6d, 0x46, 0x3b, 0xb3, 0x3c, 0x6e, 0xbd,
  0x59, 0xcb, 0x16, 0xbe, 0xce, 0x43, 0x19, 0x3c, 0x84, 0x94, 0x0e, 0xbe,
  0x6b, 0x1c, 0x5f, 0x3e, 0x93, 0x9a, 0x32, 0xbe, 0x30, 0x5b, 0x10, 0x3e,
  0x5e, 0x27, 0x58, 0x3d, 0x42, 0x6d, 0x15, 0xbe, 0xcb, 0xe7, 0x08, 0x3c,
  0x75, 0xbd, 0xea, 0xbd, 0xd9, 0x67, 0x7d, 0xbe, 0xd9, 0x6f, 0x80, 0xbd,
  0xa2, 0xae, 0xe9, 0x3d, 0xb8, 0xa6, 0x44, 0x3e, 0x15, 0xde, 0x1d, 0xbe,
  0x43, 0xcc, 0x1f, 0x3d, 0x13, 0x4b, 0x87, 0xbd, 0x79, 0x66, 0x06, 0x3e,
  0x62, 0xe0, 0xbd, 0xbd, 0x1e, 0xc4, 0xc2, 0x3d, 0x52, 0x35, 0x76, 0x3e,
  0x3d, 0x2d, 0x11, 0x3e, 0xf2, 0xba, 0x93, 0x3d, 0x3e, 0xf2, 0x60, 0xbd,
  0x40, 0x83, 0x2f, 0xbd, 0x7c, 0x02, 0xee, 0x3c, 0x43, 0xcd, 0x15, 0x3e,
  0x36, 0xb8, 0x4d, 0x3d, 0x20, 0x7b, 0x1c, 0xbd, 0x9a, 0xd1, 0xbe, 0xbc,
  0x41, 0x37, 0x42, 0xbd, 0x55, 0xe3, 0xe2, 0xbc, 0x2e, 0xaa, 0xa4, 0xbc,
  0x95, 0x18, 0xac, 0xbc, 0xd4, 0x3c, 0xe8, 0xbd, 0x9a, 0xb8, 0x1a, 0x3e,
  0x0c, 0x6c, 0xe8, 0x3d, 0x50, 0x7d, 0x68, 0xbd, 0x7a, 0x02, 0x43, 0x3e,
  0xc8, 0x19, 0x41, 0x3e, 0xe2, 0xaf, 0x12, 0x3e, 0xeb, 0xb2, 0x85, 0x3d,
  0xdb, 0xdf, 0x33, 0xbd, 0x3a, 0x3e, 0x44, 0xbe, 0x2f, 0xbb, 0x66, 0xbe,
  0x95, 0x1e, 0x8c, 0xbe, 0x3a, 0xa4, 0x60, 0x3d, 0xbf, 0x3f, 0x2c, 0x3d,
  0x9b, 0xf0, 0x49, 0xbe, 0x57, 0xb5, 0x23, 0xbd, 0x21, 0xb6, 0x49, 0x3e,
  0xd1, 0x3e, 0x44, 0x3e, 0x7a, 0x2c, 0xef, 0x3b, 0xc8, 0x5c, 0x24, 0x3e,
  0xd4, 0xec, 0x72, 0xbe, 0xb8, 0xd6, 0x6e, 0xbe, 0x43, 0xc8, 0x33, 0xbe,
  0x5c, 0x07, 0x37, 0x3e, 0x72, 0xcd, 0x20, 0x3b, 0xa5, 0x30, 0xec, 0xbd,
  0x21, 0x1e, 0x2c, 0xbe, 0x1d, 0x35, 0x6e, 0xbe, 0x55, 0xf4, 0x74, 0xbd,
  0xd3, 0xf5, 0x9a, 0xbd, 0x97, 0x93, 0x1d, 0xbe, 0xec, 0xe4, 0x89, 0xbe,
  0x2e, 0x03, 0x9c, 0xbc, 0xbc, 0xe6, 0xbb, 0x3c, 0x0f, 0x29, 0x22, 0xbe,
  0xe2, 0x81, 0xa4, 0xbd, 0x55, 0x63, 0x88, 0x3d, 0xd5, 0x59, 0x32, 0xbe,
  0x8e, 0x25, 0x03, 0x3e, 0xef, 0x17, 0x1a, 0xbe, 0x7c, 0x14, 0x32, 0xbe,
  0x21, 0xf3, 0xb9, 0x3d, 0xd3, 0x95, 0x08, 0xbe, 0xd5, 0x79, 0x63, 0x3d,
  0xbe, 0x7a, 0x3c, 0xbe, 0x2b, 0x7b, 0x2b, 0x3e, 0x51, 0xef, 0x91, 0x3d,
  0x8e, 0x21, 0x9e, 0xbd, 0xc2, 0x60, 0xb0, 0xbd, 0x8c, 0xbf, 0x8c, 0x3d,
  0x02, 0x24, 0x06, 0x3e, 0x4f, 0x9b, 0x79, 0xbe, 0x3a, 0x73, 0x12, 0x3e,
  0xed, 0xc2, 0x38, 0x3d, 0xae, 0x75, 0x10, 0xbd, 0x16, 0xc4, 0x5d, 0xbd,
  0x18, 0x48, 0xce, 0xbd, 0x2b, 0xf9, 0xe5, 0xbd, 0xe2, 0x47, 0x9d, 0xbd,
  0x58, 0x37, 0x2a, 0xbe, 0x80, 0xf0, 0x03, 0xbe, 0x0f, 0x4a, 0x87, 0x3c,
  0xe6, 0x29, 0xd7, 0xbd, 0xf7, 0x9a, 0xf8, 0xbd, 0x4c, 0xbe, 0x25, 0xbd,
  0x72, 0xeb, 0xe8, 0xbd, 0xb1, 0xb9, 0x45, 0xbd, 0x8e, 0x25, 0x96, 0xbd,
  0x89, 0xfb, 0xa6, 0x3c, 0xd0, 0xf4, 0x80, 0x3d, 0x8d, 0x6b, 0x27, 0xbe,
  0x51, 0xaf, 0x08, 0xbc, 0xf5, 0xae, 0x65, 0xbe, 0x82, 0x34, 0x94, 0x3d,
  0x90, 0x72, 0x55, 0xbd, 0xd1, 0xa6, 0x2d, 0x3e, 0xde, 0x9f, 0xb6, 0xbc,
  0x7c, 0x8f, 0x12, 0xbe, 0xab, 0x9d, 0xd0, 0x3c, 0x0c, 0x0b, 0x27, 0xbe,
  0xc7, 0xea, 0x92, 0x3d, 0x8d, 0xfc, 0x44, 0x3d, 0x96, 0x91, 0x02, 0x3c,
  0xca, 0x7e, 0xa9, 0x3d, 0x71, 0xf5, 0x2a, 0xbd, 0x49, 0x93, 0xe1, 0x3d,
  0x56, 0x57, 0x1e, 0xbd, 0xf4, 0xeb, 0xfe, 0x3d, 0xe4, 0xfb, 0xcd, 0xbd,
  0x20, 0x6f, 0x4b, 0xbe, 0x0d, 0xf1, 0x16, 0xbe, 0xad, 0x3d, 0x2e, 0x3e,
  0x2e, 0xc2, 0x71, 0x3d, 0xf4, 0x7e, 0x2b, 0xbe, 0x0b, 0x06, 0xe3, 0x3d,
  0xbb, 0x81, 0x24, 0x3e, 0x49, 0xfd, 0xde, 0x3c, 0xf1, 0xe4, 0xc5, 0x3d,
  0xd4, 0x50, 0x1f, 0x3e, 0x71, 0x01, 0x7f, 0x3e, 0x9a, 0x8e, 0x0b, 0xbd,
  0xa5, 0x44, 0x6b, 0xbd, 0xa9, 0x48, 0xd1, 0xbd, 0xb9, 0x3b, 0x01, 0xbe,
  0x8e, 0x4b, 0xa0, 0xbd, 0x56, 0x5c, 0x2c, 0x3e, 0x6c, 0x8c, 0xe2, 0x3d,
  0x6c, 0xc4, 0x2d, 0x3d, 0x6e, 0x50, 0x8f, 0x3c, 0xcc, 0xa3, 0x69, 0x3d,
  0x77, 0xed, 0x1b, 0xbe, 0x7c, 0xe3, 0xf4, 0xbd, 0xbf, 0x02, 0x81, 0x3e,
  0xaf, 0xb0, 0x13, 0xbd, 0xf5, 0x0a, 0x35, 0x3e, 0xed, 0xa5, 0x2d, 0xbd,
  0x3c, 0x00, 0x56, 0xbd, 0xda, 0x70, 0x02, 0xbe, 0x78, 0x01, 0x69, 0xbd,
  0xec, 0x30, 0x82, 0x3d, 0x3d, 0x29, 0x20, 0xbe, 0x48, 0x1c, 0x39, 0xbe,
  0x45, 0xff, 0xde, 0x3d, 0x35, 0x0d, 0x46, 0x3e, 0x93, 0x66, 0xe8, 0xbd,
  0x00, 0x89, 0x20, 0x3e, 0xe0, 0x04, 0x00, 0x3e, 0xb9, 0x1e, 0xb0, 0x3d,
  0x92, 0x14, 0x23, 0x3e, 0xed, 0xa3, 0x35, 0x3e, 0xb0, 0x98, 0x3b, 0x3d,
  0x65, 0x77, 0x07, 0x3d, 0x71, 0xcc, 0xdc, 0x3c, 0x93, 0x59, 0x4e, 0x3e,
  0x23, 0x0d, 0x81, 0xbd, 0x14, 0x35, 0x71, 0x3d, 0x83, 0xba, 0x24, 0xbc,
  0xe9, 0x61, 0x81, 0x3d, 0x18, 0xf1, 0x36, 0x3d, 0x07, 0x98, 0x55, 0xbe,
  0xb1, 0x06, 0x8f, 0xbc, 0x8a, 0x7a, 0x2d, 0x3e, 0x65, 0x3b, 0x80, 0xbe,
  0x24, 0x63, 0xa7, 0x3d, 0xb4, 0x43, 0xb7, 0xbd, 0xa0, 0xb9, 0x35, 0x3d,
  0xa8, 0xbd, 0x6b, 0xbe, 0xa7, 0xbf, 0x9c, 0x3d, 0x0b, 0x6b, 0x7b, 0x3c,
  0xc9, 0x10, 0xf5, 0xbd, 0x31, 0xe1, 0xe9, 0x3d, 0xa7, 0xf7, 0x8d, 0x3e,
  0xfc, 0x75, 0x16, 0xbe, 0x4f, 0xb5, 0x5c, 0xbe, 0xd6, 0x00, 0x40, 0x3e,
  0xc9, 0xf3, 0x80, 0xbb, 0xb2, 0x8b, 0x9b, 0x3d, 0x52, 0x49, 0xb7, 0x3d,
  0xee, 0xbd, 0x78, 0xbd, 0x2b, 0x35, 0xfe, 0x3d, 0x8b, 0x05, 0x3f, 0x3e,
  0xe5, 0x71, 0xbe, 0xbd, 0x99, 0xb3, 0xd2, 0x3d, 0xec, 0x7f, 0xc9, 0xbd,
  0x1f, 0x3e, 0x93, 0x39, 0x84, 0xa5, 0x29, 0x3e, 0x7e, 0x96, 0x9a, 0xbb,
  0x68, 0x10, 0x0f, 0xbd, 0x5d, 0x1a, 0x0a, 0xbe, 0x26, 0xad, 0x4d, 0x3e,
  0x92, 0x62, 0xd7, 0x3d, 0x6d, 0x89, 0x95, 0xbd, 0x1c, 0xe3, 0x3e, 0x3c,
  0x33, 0x61, 0xec, 0x3c, 0x41, 0xbc, 0x48, 0xbe, 0xfd, 0xbf, 0xba, 0x3d,
  0xd3, 0x67, 0x89, 0xbd, 0x53, 0x63, 0xee, 0x3d, 0xda, 0x61, 0x92, 0xbd,
  0x94, 0x06, 0xf8, 0xbc, 0x3b, 0xfd, 0xa3, 0xbd, 0xab, 0xd5, 0x2e, 0x3e,
  0x88, 0x42, 0x66, 0xbe, 0x29, 0xd7, 0x99, 0xbd, 0x4a, 0x31, 0x24, 0xbd,
  0x4e, 0x23, 0xd6, 0x3e, 0x52, 0x79, 0xd4, 0x3d, 0x29, 0xe5, 0x72, 0xbe,
  0xab, 0x1b, 0xb9, 0xbe, 0xc4, 0xd9, 0x85, 0x3e, 0x52, 0xfa, 0x9e, 0x3d,
  0x9f, 0xbd, 0xd3, 0x3d, 0x26, 0x4f, 0x15, 0x3e, 0x78, 0xe1, 0x88, 0xbe,
  0xa2, 0x73, 0x11, 0x3c, 0xf7, 0x88, 0xa2, 0x3d, 0xf0, 0xa5, 0x01, 0x3e,
  0xc3, 0xf1, 0x04, 0xbe, 0x79, 0x1f, 0x61, 0x3e, 0x5c, 0xe5, 0x9c, 0xbe,
  0x7b, 0x84, 0xae, 0xbe, 0x1b, 0xc7, 0xfc, 0x3c, 0x41, 0x71, 0xaf, 0x3e,
  0x5a, 0x7a, 0x3c, 0x3e, 0xa5, 0x40, 0xf9, 0x3e, 0xc4, 0xd5, 0x37, 0xbf,
  0xeb, 0xfa, 0x61, 0x3d, 0x11, 0x56, 0xee, 0xbe, 0xeb, 0xf0, 0xdd, 0x3e,
  0x7a, 0x04, 0x9b, 0xbd, 0x03, 0xd4, 0xbd, 0xbd, 0xfc, 0x32, 0x3b, 0xbe,
  0x04, 0x33, 0x41, 0xbe, 0xbf, 0x00, 0x23, 0x3e, 0x53, 0x2c, 0x44, 0xbd,
  0xd6, 0xf2, 0x68, 0x3d, 0x8e, 0xd0, 0x0d, 0xbc, 0x25, 0x5a, 0x53, 0xbe,
  0x5c, 0x6f, 0xa6, 0xbe, 0x53, 0x86, 0x63, 0x39, 0xf4, 0x0d, 0x8b, 0x3e,
  0xe5, 0x24, 0xc8, 0xbe, 0xaf, 0xfe, 0xe3, 0x3e, 0x83, 0xd5, 0x28, 0xbe,
  0x0f, 0x08, 0x21, 0x3e, 0xca, 0x7a, 0x01, 0x3f, 0xe6, 0xfe, 0xbc, 0x3c,
  0xc9, 0xf5, 0xb9, 0xbe, 0x7f, 0x8d, 0x65, 0xbc, 0xc6, 0x5e, 0x92, 0x3e,
  0x8c, 0xa5, 0xe4, 0x3d, 0x4a, 0x5c, 0xa9, 0xbd, 0xe3, 0xc9, 0x87, 0xbe,
  0x82, 0x4c, 0xa7, 0x3e, 0x1c, 0xcd, 0x94, 0x3d, 0xd4, 0x00, 0xad, 0xbc,
  0x95, 0xbb, 0x3e, 0xbe, 0xed, 0xe2, 0x48, 0xbd, 0xf0, 0xc3, 0xd2, 0xbe,
  0x9d, 0x09, 0xc2, 0x3e, 0xe2, 0xbd, 0x0b, 0x3d, 0x51, 0x57, 0xb3, 0x3e,
  0x55, 0x84, 0xe0, 0x3c, 0x30, 0x15, 0x76, 0xbe, 0x51, 0xb4, 0x05, 0xbe,
  0xb1, 0xed, 0x0a, 0x3e, 0x1d, 0x59, 0xb9, 0xbe, 0x16, 0xe3, 0xf4, 0x3e,
  0xbf, 0xe4, 0xcd, 0x3d, 0x59, 0x2f, 0xb8, 0x3e, 0xc2, 0xf9, 0x14, 0x3e,
  0x66, 0x60, 0xa3, 0xbd, 0x20, 0xc4, 0xde, 0xbe, 0xaf, 0x27, 0x85, 0xbb,
  0xc7, 0x62, 0x69, 0x3c, 0x00, 0x40, 0xa2, 0x3b, 0x9c, 0xb2, 0x6f, 0xbe,
  0x9c, 0x0c, 0x95, 0xbe, 0xef, 0xa5, 0xec, 0x3e, 0x59, 0xcb, 0x32, 0xbe,
  0x01, 0x6e, 0x6c, 0x3e, 0x46, 0x58, 0xa2, 0xbe, 0x15, 0xf6, 0x52, 0x3e,
  0xa0, 0x8b, 0x62, 0x3e, 0x04, 0x38, 0xf0, 0xbe, 0x41, 0x7b, 0x8d, 0x3e,
  0xc0, 0x8a, 0xc0, 0xbe, 0x3a, 0x03, 0x09, 0xbe, 0x20, 0x5a, 0xf3, 0x3d,
  0x61, 0x9a, 0x5e, 0xbd, 0x45, 0xa5, 0xd3, 0x3d, 0x29, 0x77, 0x9d, 0xbe,
  0x14, 0xfb, 0x68, 0x3c, 0x84, 0x51, 0x68, 0x3e, 0x37, 0xcc, 0x62, 0xbe,
  0x20, 0x89, 0x36, 0x3e, 0x87, 0x71, 0x32, 0xbe, 0x5c, 0xaf, 0xb5, 0x3d,
  0x56, 0xcd, 0x85, 0x3d, 0x61, 0x17, 0x07, 0x3d, 0x08, 0x5c, 0x3d, 0x3e,
  0xb0, 0xf3, 0x27, 0x3e, 0xb0, 0xef, 0x82, 0xbe, 0x59, 0x49, 0x14, 0xbe,
  0x11, 0x6c, 0x22, 0xbe, 0x4a, 0x42, 0xab, 0x3d, 0x4e, 0x89, 0x1c, 0xbe,
  0xb3, 0x67, 0xaa, 0xbd, 0x19, 0x41, 0x47, 0x3e, 0x83, 0x7f, 0x45, 0x3e,
  0x70, 0xbb, 0x5e, 0xbd, 0xce, 0x5e, 0x15, 0xbe, 0xbb, 0x2a, 0x39, 0x3e,
  0x4e, 0xab, 0xa1, 0x3d, 0xbe, 0xce, 0x08, 0xbe, 0xc4, 0xef, 0x3e, 0xbe,
  0xc2, 0xec, 0xf7, 0xbd, 0x04, 0x5b, 0x65, 0xbd, 0x7d, 0x93, 0xfc, 0x3c,
  0xb5, 0xfe, 0x47, 0x3e, 0xaf, 0x21, 0x3a, 0xbd, 0xd9, 0x49, 0x40, 0x3e,
  0x30, 0xac, 0xd0, 0xbb, 0xf3, 0x1b, 0x6e, 0x3e, 0x71, 0xf4, 0xb3, 0x3d,
  0xc0, 0x72, 0x27, 0xbe, 0x88, 0xe0, 0x9b, 0x3c, 0xd9, 0xbe, 0x15, 0x3d,
  0xc4, 0x75, 0x35, 0x3d, 0xb5, 0xba, 0x27, 0x3e, 0xfc, 0xc5, 0x66, 0xbe,
  0xbf, 0xb9, 0x28, 0xbd, 0x61, 0xd0, 0x47, 0x3e, 0x38, 0xf9, 0x34, 0xbe,
  0xcc, 0xc7, 0x94, 0x3d, 0xea, 0x0d, 0x24, 0x3e, 0x8b, 0xea, 0x0c, 0xbe,
  0x33, 0x3a, 0xdb, 0xbc, 0x86, 0xcf, 0x0f, 0x3e, 0x25, 0xe2, 0xdc, 0x3d,
  0x59, 0x0e, 0x23, 0xbc, 0x63, 0xad, 0x26, 0x3e, 0xbf, 0xfa, 0xd9, 0x3d,
  0xd9, 0x8b, 0x6d, 0x3d, 0x8f, 0x8b, 0xb7, 0xbd, 0x38, 0xc2, 0x99, 0xbe,
  0x34, 0x99, 0x05, 0x3e, 0x6a, 0xd2, 0xc0, 0x3c, 0xaa, 0x41, 0x2d, 0x3e,
  0xb6, 0x89, 0xa0, 0x3d, 0xba, 0xd2, 0x44, 0xbd, 0xcb, 0xe2, 0xb5, 0x3d,
  0x3f, 0x3f, 0x18, 0x3e, 0xbe, 0x85, 0xee, 0x3d, 0x91, 0x81, 0x37, 0x3d,
  0xc8, 0x3e, 0xdd, 0xbd, 0x9b, 0x8c, 0xe6, 0xbc, 0x6c, 0x86, 0x1c, 0x3e,
  0x6f, 0xa8, 0x2c, 0xbe, 0xce, 0xc2, 0x76, 0xbd, 0x21, 0x3f, 0x1c, 0xbe,
  0xb2, 0x28, 0x4e, 0x3e, 0x37, 0x0a, 0x2b, 0x3e, 0x11, 0x17, 0x11, 0xbd,
  0x03, 0x06, 0x84, 0x3d, 0x9e, 0x08, 0x6e, 0x3d, 0x9d, 0x6e, 0x1e, 0xbe,
  0x23, 0xd6, 0x8a, 0x3e, 0x64, 0xe3, 0xc0, 0xbb, 0x65, 0x28, 0x37, 0xbd,
  0x44, 0xfe, 0x89, 0x3e, 0x2e, 0xcc, 0xf0, 0x3d, 0x83, 0x25, 0x0a, 0x3d,
  0x36, 0x89, 0x44, 0x3e, 0x4f, 0xe2, 0x31, 0x3e, 0xa3, 0x17, 0x3f, 0xbd,
  0x13, 0x87, 0x2e, 0x3d, 0xbf, 0x60, 0x8d, 0xbe, 0x7b, 0xdd, 0x02, 0x3e,
  0x16, 0xde, 0xbd, 0xbd, 0xca, 0x8a, 0xd8, 0x3d, 0xd9, 0xef, 0xdf, 0x3d,
  0x97, 0x82, 0xed, 0xbd, 0x72, 0xd5, 0x2f, 0x3e, 0xf3, 0x1f, 0x4a, 0x3e,
  0xec, 0x29, 0x90, 0x3e, 0x63, 0x63, 0x71, 0x3e, 0xf3, 0x11, 0x5c, 0x3e,
  0xef, 0x74, 0x63, 0x3e, 0x92, 0x6b, 0x83, 0x3e, 0x7d, 0x94, 0xf8, 0xbd,
  0x0f, 0x6e, 0xd2, 0xbd, 0xa0, 0x85, 0x8c, 0x3d, 0x4f, 0x3a, 0x45, 0x3d,
  0xe4, 0x1e, 0x11, 0xbe, 0xbc, 0x32, 0x36, 0x3d, 0xde, 0x67, 0x6c, 0xbd,
  0x5b, 0x81, 0xa7, 0xbd, 0x86, 0x91, 0x90, 0x3c, 0x82, 0x7a, 0x0e, 0x3e,
  0x7a, 0x9b, 0x8e, 0x38, 0x27, 0x2e, 0xe7, 0x3d, 0x46, 0x3a, 0xbf, 0xbc,
  0x01, 0x5a, 0xbf, 0xb9, 0xaa, 0x4a, 0x1b, 0x3e, 0x18, 0x9d, 0x15, 0xbc,
  0xdf, 0xb5, 0x38, 0x3e, 0x26, 0x8e, 0xe8, 0xbd, 0x33, 0x18, 0xf1, 0xbc,
  0xba, 0xa9, 0xa2, 0xbd, 0x71, 0x39, 0xc7, 0xbd, 0x91, 0xc6, 0x9d, 0x3d,
  0x54, 0xf3, 0x8d, 0x3d, 0xc5, 0x7c, 0xcc, 0x3d, 0x15, 0x69, 0x23, 0xbb,
  0x29, 0xd5, 0x9d, 0xbd, 0xba, 0x3d, 0x62, 0x3e, 0x72, 0xf1, 0xb4, 0x3d,
  0xba, 0x30, 0x89, 0xbe, 0x63, 0xd7, 0x92, 0x3c, 0xc2, 0x2c, 0x25, 0x3e,
  0xdb, 0x48, 0x27, 0x3e, 0xe9, 0x93, 0xd0, 0xbd, 0x22, 0xe6, 0x54, 0xbe,
  0x7c, 0xd4, 0x23, 0x3e, 0x37, 0xfe, 0xb1, 0x3c, 0x1e, 0xa5, 0xcd, 0x3c,
  0xa7, 0x1c, 0xc8, 0x3c, 0x17, 0x3a, 0x22, 0xbe, 0xbd, 0x36, 0x58, 0xbe,
  0x76, 0xd9, 0x65, 0xbd, 0x38, 0xf6, 0x80, 0xbe, 0xd6, 0xcc, 0x64, 0xbe,
  0x24, 0xc5, 0x1a, 0xbd, 0xef, 0xfd, 0x06, 0xbe, 0x99, 0xcd, 0x34, 0xbe,
  0xac, 0x35, 0x4f, 0x3c, 0x3c, 0x17, 0x8b, 0xbd, 0x54, 0xdb, 0xf2, 0xbd,
  0x47, 0x94, 0xaa, 0xbd, 0x7a, 0xbc, 0x07, 0x3e, 0x18, 0x2f, 0x07, 0xbe,
  0xf6, 0x63, 0x0e, 0x3e, 0x5a, 0x3d, 0xa4, 0x3d, 0x7d, 0xa9, 0x37, 0xbe,
  0xac, 0xdd, 0x3f, 0x3d, 0x73, 0xfd, 0x25, 0xbe, 0xe5, 0x5a, 0xb0, 0xbd,
  0x3f, 0x57, 0x93, 0xbd, 0x4b, 0x1b, 0xc8, 0x3d, 0xfd, 0x5f, 0x6e, 0x3c,
  0x72, 0x5d, 0x12, 0x3e, 0x9f, 0xcd, 0x0a, 0xbe, 0x29, 0xfd, 0x47, 0x3d,
  0x71, 0x89, 0x5c, 0xbe, 0x30, 0x71, 0xb5, 0xbd, 0x71, 0x80, 0xfa, 0x3d,
  0x02, 0xf1, 0x17, 0xbe, 0x28, 0x33, 0x4d, 0x3e, 0xaa, 0x18, 0x17, 0xbe,
  0x95, 0x0f, 0x20, 0x3e, 0x95, 0x5c, 0x5e, 0xba, 0xbe, 0x44, 0x59, 0x3d,
  0x05, 0x18, 0x68, 0xbe, 0x6c, 0x15, 0x4e, 0xbe, 0x11, 0x8f, 0xf6, 0xbd,
  0x95, 0x2d, 0x38, 0x3e, 0x48, 0x7e, 0x7b, 0xbe, 0x79, 0xec, 0x5e, 0x3c,
  0xf0, 0x40, 0x84, 0x3d, 0xfb, 0x23, 0xb9, 0xba, 0x7a, 0xb5, 0x39, 0x3e,
  0x87, 0x9b, 0xc2, 0xbd, 0x5d, 0x7c, 0x28, 0x3e, 0xad, 0x20, 0x77, 0x3d,
  0x07, 0x24, 0xc0, 0xbd, 0xda, 0x29, 0x08, 0xbe, 0x28, 0x1b, 0x33, 0xbd,
  0x8b, 0x9c, 0xfa, 0x3d, 0xb0, 0x42, 0x75, 0xbc, 0x63, 0x56, 0x7a, 0xbd,
  0x20, 0xa8, 0x01, 0xbe, 0x8c, 0x76, 0xc8, 0x3d, 0xdd, 0xae, 0x3a, 0xbe,
  0xb3, 0xad, 0xda, 0x3d, 0xea, 0xf9, 0x1c, 0x3e, 0x57, 0xbb, 0x37, 0xbe,
  0x36, 0xb8, 0x33, 0x3e, 0x46, 0x12, 0xbc, 0x3d, 0x50, 0x45, 0x66, 0x3e,
  0x8b, 0x5f, 0x64, 0x3e, 0x95, 0xc4, 0x91, 0x3e, 0xfa, 0x70, 0xe8, 0xbd,
  0x7a, 0x2d, 0x16, 0x3e, 0x09, 0x95, 0x30, 0xbe, 0x8a, 0x65, 0x2e, 0x3e,
  0x62, 0x6d, 0x4a, 0xbd, 0x85, 0xeb, 0xd1, 0xbd, 0xb7, 0x2c, 0x82, 0xbe,
  0x82, 0xd5, 0x42, 0xbe, 0x2b, 0x5c, 0x1c, 0x3e, 0x39, 0xb3, 0x7b, 0xbe,
  0xd3, 0x79, 0x40, 0x3e, 0x57, 0x48, 0xe4, 0x3b, 0xe7, 0xab, 0x6c, 0xbe,
  0x18, 0xc3, 0x72, 0xbe, 0xca, 0x74, 0xd8, 0x3c, 0x41, 0xe1, 0x4b, 0xbe,
  0x86, 0xe9, 0xaf, 0xbd, 0x2a, 0x89, 0x52, 0xbb, 0xfb, 0x6a, 0x0e, 0x3e,
  0xb3, 0x13, 0x8b, 0xbd, 0x08, 0x5c, 0x5f, 0xbe, 0xd5, 0x4b, 0x80, 0xbe,
  0x14, 0x9b, 0x1c, 0x3e, 0x4c, 0xed, 0x34, 0x3d, 0xc9, 0x79, 0x9f, 0xbe,
  0x0e, 0xde, 0xe8, 0xbd, 0x34, 0xe7, 0x84, 0xbe, 0x84, 0x47, 0xa6, 0x3d,
  0x20, 0xe8, 0x4c, 0x3e, 0x97, 0x07, 0xa6, 0x3d, 0x2e, 0x91, 0x62, 0x3e,
  0x93, 0xcb, 0xa6, 0x3d, 0xbe, 0xd1, 0xd8, 0x3d, 0xd0, 0x62, 0x4e, 0x3d,
  0x8c, 0xd7, 0x11, 0xbe, 0xbe, 0xca, 0x29, 0x3e, 0xd5, 0x5d, 0xc4, 0xbd,
  0x6f, 0x17, 0x3d, 0x3e, 0x06, 0xa4, 0xc9, 0xbb, 0x04, 0x10, 0x0a, 0xbc,
  0xb7, 0x13, 0x57, 0xbe, 0x1d, 0x61, 0x3e, 0xbe, 0x14, 0x2a, 0xd1, 0x3d,
  0x33, 0xa0, 0x35, 0xbe, 0xc8, 0xac, 0xfc, 0xbd, 0xb7, 0x6c, 0x82, 0xbe,
  0x21, 0x3f, 0x6f, 0xbd, 0x17, 0xc3, 0x60, 0xbe, 0x5b, 0x47, 0xc8, 0xbd,
  0x4a, 0xbb, 0x95, 0x3d, 0xa2, 0x76, 0x59, 0x3e, 0x33, 0xd8, 0x5c, 0xbe,
  0xdb, 0xd8, 0x2d, 0xbe, 0x8d, 0x13, 0x21, 0x3e, 0x1b, 0x5e, 0x4a, 0xbe,
  0x62, 0x32, 0x8a, 0x3c, 0x29, 0xbd, 0x77, 0xbe, 0x06, 0xfb, 0x20, 0xbe,
  0x96, 0x33, 0x89, 0xbe, 0xac, 0x46, 0x4d, 0xbe, 0x81, 0x50, 0x91, 0xbe,
  0xa1, 0x04, 0x1f, 0x3d, 0xee, 0xd0, 0xce, 0x3d, 0x67, 0x85, 0xf6, 0x3b,
  0x9f, 0xdd, 0x3c, 0xbe, 0xb5, 0x1e, 0x19, 0xbd, 0x58, 0x14, 0x54, 0x3e,
  0x0f, 0x2c, 0x0d, 0xbd, 0xb7, 0x14, 0x0d, 0x3e, 0x4f, 0xf3, 0x51, 0x3e,
  0xad, 0x91, 0xaf, 0xbd, 0x69, 0x4c, 0x0f, 0xbe, 0x46, 0xb2, 0xe3, 0x3d,
  0x56, 0x9b, 0x2d, 0xbd, 0x0a, 0x7d, 0x81, 0xbe, 0xe6, 0x6b, 0x40, 0xbc,
  0x27, 0x18, 0xea, 0x3d, 0x91, 0x85, 0x4d, 0x3d, 0x15, 0xe8, 0x5c, 0x3e,
  0x3c, 0xd3, 0x76, 0xbe, 0x06, 0xe0, 0xf2, 0x3d, 0xe5, 0xa5, 0x16, 0xbe,
  0xea, 0x61, 0x4d, 0xbe, 0x62, 0x3f, 0xb7, 0x3d, 0xdc, 0x3d, 0x5f, 0x3e,
  0xe3, 0x68, 0x23, 0xbd, 0x18, 0x52, 0xa5, 0x3d, 0xea, 0x88, 0x36, 0x3e,
  0xe7, 0x81, 0x86, 0x3e, 0x85, 0x68, 0x91, 0x3c, 0x4c, 0xd9, 0xb4, 0xbd,
  0x55, 0x65, 0x54, 0x3d, 0x16, 0x62, 0xd3, 0x3d, 0x9f, 0xe8, 0x0b, 0x3c,
  0x0d, 0x78, 0xdd, 0xbd, 0xde, 0x79, 0x46, 0x3e, 0xc3, 0x34, 0x3b, 0x3e,
  0x72, 0x42, 0xfc, 0xbd, 0x94, 0xa8, 0x45, 0xbe, 0x7e, 0x9c, 0x31, 0x3e,
  0x52, 0xe3, 0xe3, 0x3d, 0x3e, 0x04, 0xd9, 0xbd, 0xef, 0x86, 0x67, 0xbd,
  0xd6, 0xa2, 0xba, 0x3d, 0x39, 0x7a, 0x63, 0xbe, 0x53, 0x60, 0x2c, 0x3e,
  0x99, 0x1b, 0x5a, 0xbd, 0x19, 0xb8, 0xb8, 0xbd, 0x67, 0xc9, 0xce, 0xba,
  0xf7, 0xfb, 0x4e, 0xbd, 0x1f, 0x9c, 0xc6, 0xbd, 0xab, 0x5e, 0x4b, 0xbe,
  0x50, 0x8f, 0xc6, 0xbd, 0x3f, 0xf9, 0x35, 0x3a, 0x65, 0x41, 0xbf, 0x3c,
  0x30, 0x8a, 0x8b, 0xbd, 0x36, 0xdd, 0x30, 0x3e, 0x39, 0x7f, 0x83, 0xbd,
  0x5c, 0x8a, 0xb7, 0xba, 0xd1, 0xb3, 0x0b, 0x3e, 0xd7, 0x90, 0xf0, 0xbd,
  0x78, 0x44, 0xce, 0xbb, 0xe9, 0xd0, 0xd2, 0x3c, 0x5e, 0xcd, 0x31, 0xbe,
  0x87, 0x3c, 0x20, 0x3c, 0x2f, 0x60, 0xc9, 0xbd, 0x4a, 0xa8, 0x24, 0xbe,
  0x51, 0x9a, 0x64, 0xbd, 0xe1, 0xde, 0x07, 0x3d, 0xcb, 0xa3, 0x41, 0xbd,
  0x24, 0x43, 0x66, 0xbd, 0x2e, 0x74, 0xaf, 0x3c, 0x4b, 0x66, 0x8b, 0x3c,
  0x1e, 0x94, 0x50, 0xbe, 0x6e, 0x31, 0xe2, 0xb9, 0x27, 0x1a, 0x1e, 0x3e,
  0xd4, 0x96, 0x0a, 0xbe, 0xfd, 0xbd, 0xa9, 0xbd, 0xaa, 0x5f, 0x28, 0xbe,
  0x95, 0x7a, 0x18, 0xbd, 0x66, 0xee, 0x0d, 0x3d, 0x89, 0xc5, 0x28, 0x3d,
  0x18, 0x07, 0x34, 0xbe, 0xc8, 0x96, 0x11, 0x3e, 0x89, 0x86, 0xe0, 0x3c,
  0x54, 0x0a, 0x31, 0x3e, 0x7c, 0x06, 0x0c, 0xbd, 0x6d, 0x66, 0x65, 0x3d,
  0xdf, 0xa1, 0x1b, 0x3e, 0x60, 0x2b, 0x8b, 0xbb, 0x6b, 0xa6, 0xfb, 0xbd,
  0xe4, 0x89, 0x5d, 0x3d, 0x60, 0x39, 0xad, 0xbc, 0x1e, 0x60, 0xad, 0x3c,
  0x86, 0x6b, 0xc5, 0xbd, 0xe8, 0x58, 0x10, 0x3d, 0xd6, 0x7d, 0x58, 0x3b,
  0x0e, 0x55, 0x45, 0xbd, 0x13, 0xef, 0x05, 0xbe, 0xda, 0x67, 0xb7, 0x3d,
  0x93, 0x07, 0x97, 0xbd, 0xe0, 0x46, 0xe1, 0x3d, 0xa7, 0x67, 0x73, 0x3d,
  0x75, 0xfa, 0xd5, 0x3b, 0x15, 0x98, 0x16, 0x3d, 0x4e, 0x12, 0x8d, 0xbd,
  0x8a, 0x85, 0x33, 0xbd, 0x75, 0x3e, 0x88, 0xbd, 0xa0, 0xc3, 0xf0, 0xbd,
  0xec, 0xed, 0x17, 0x3d, 0xb2, 0xbb, 0x46, 0x3d, 0xb2, 0x8d, 0x44, 0xbe,
  0xb1, 0x28, 0x0b, 0xbc, 0x98, 0x29, 0xb4, 0xbd, 0xc8, 0x3c, 0x93, 0xbd,
  0xb0, 0x89, 0x0a, 0xbe, 0x9a, 0x2e, 0x8a, 0x3d, 0xf3, 0x5f, 0xa9, 0xbd,
  0xed, 0x66, 0x42, 0xbe, 0x66, 0x8a, 0x37, 0x3d, 0x66, 0x00, 0xfa, 0xbd,
  0x2a, 0x2a, 0xd7, 0xbd, 0x3f, 0xbf, 0xd7, 0x3d, 0xb5, 0x79, 0xd6, 0xbd,
  0xcb, 0x51, 0xd6, 0x3d, 0x3e, 0x18, 0x49, 0x3e, 0x6b, 0x78, 0x47, 0x3d,
  0x32, 0xb1, 0xda, 0x3d, 0xdf, 0xe0, 0xce, 0xbd, 0x0b, 0x89, 0x04, 0x3e,
  0xc5, 0x9f, 0xb4, 0xba, 0x0f, 0xa3, 0xd6, 0xbd, 0x1e, 0xa3, 0x32, 0x3e,
  0x8c, 0xf1, 0xf2, 0x3d, 0x78, 0x7d, 0x4e, 0xbe, 0x2e, 0x5a, 0x6e, 0x3d,
  0x5f, 0x18, 0xd5, 0x3d, 0x0c, 0x1d, 0x3a, 0x3e, 0x83, 0x67, 0xb3, 0x3d,
  0x0e, 0xbe, 0x1f, 0xbe, 0xdb, 0x3e, 0xbd, 0x3d, 0x2a, 0x45, 0x6d, 0x3e,
  0xd6, 0x7a, 0xd1, 0x3d, 0x0b, 0x35, 0x4b, 0xbe, 0x1f, 0x80, 0x04, 0xbc,
  0x41, 0x8c, 0x30, 0x3e, 0xae, 0xca, 0xb3, 0x3c, 0x16, 0xd5, 0xf7, 0x3b,
  0xa8, 0x36, 0x2a, 0x3e, 0x46, 0x4f, 0x02, 0x3e, 0xab, 0xec, 0x4d, 0x3d,
  0x43, 0xd1, 0x4e, 0x3e, 0x42, 0x9d, 0x85, 0x3e, 0x12, 0x35, 0xf2, 0x3d,
  0x95, 0xe2, 0xf8, 0xbd, 0xe1, 0xbf, 0xf5, 0xbb, 0xbb, 0x4b, 0x8d, 0xbd,
  0xea, 0x0d, 0xb8, 0xbd, 0x71, 0x7b, 0x92, 0x3c, 0xab, 0x84, 0x05, 0x3e,
  0xf7, 0x5d, 0xa1, 0x3b, 0x6a, 0x3b, 0xd4, 0xbd, 0x66, 0xd0, 0x51, 0xbc,
  0x73, 0x43, 0xeb, 0x3d, 0x75, 0x12, 0x02, 0xbe, 0x28, 0xb6, 0xfc, 0xbd,
  0x15, 0x29, 0x60, 0x3e, 0x14, 0x00, 0xda, 0x3d, 0x33, 0x6c, 0x37, 0x3e,
  0x74, 0x79, 0x07, 0xbc, 0xe6, 0x1c, 0x6d, 0x3e, 0x81, 0x63, 0x98, 0x3d,
  0xa0, 0x93, 0xb7, 0xbc, 0x31, 0xd8, 0xa9, 0xbd, 0x30, 0x34, 0x5c, 0x3c,
  0xc8, 0x8c, 0x33, 0x3e, 0x34, 0x2f, 0x33, 0xbd, 0x0a, 0x2b, 0xb4, 0x3c,
  0x0e, 0xaf, 0xe0, 0xbc, 0x46, 0x62, 0xa4, 0xbc, 0x0f, 0x83, 0x1d, 0x3d,
  0x16, 0x72, 0xc0, 0x3c, 0x5d, 0x5c, 0x4a, 0x3d, 0x6e, 0x7f, 0x65, 0x3d,
  0x6c, 0x87, 0x14, 0xbe, 0x4e, 0x14, 0x21, 0x3e, 0x3f, 0x26, 0x53, 0x3e,
  0xff, 0x82, 0xc1, 0x3d, 0x6f, 0xee, 0x1c, 0xbe, 0x99, 0xb7, 0x34, 0x3e,
  0x4c, 0x53, 0xbe, 0xbc, 0x3a, 0x82, 0x0f, 0xbe, 0x75, 0x38, 0xad, 0x3d,
  0x89, 0xda, 0x52, 0xbe, 0x35, 0x23, 0xa8, 0x3d, 0x21, 0xf8, 0xda, 0xbc,
  0xa9, 0x9e, 0x28, 0x3e, 0xf6, 0x37, 0x9d, 0x3d, 0x65, 0xea, 0x40, 0x3d,
  0xfd, 0x03, 0x17, 0x3c, 0x64, 0x93, 0x02, 0xbe, 0xf2, 0xf6, 0x0b, 0xbd,
  0x71, 0x03, 0xcd, 0xbd, 0x45, 0x10, 0x03, 0xbe, 0xb6, 0x4f, 0x7d, 0x3d,
  0x63, 0xb8, 0xb0, 0xbd, 0xd0, 0x1b, 0x04, 0x3c, 0x34, 0x12, 0xad, 0xbc,
  0x55, 0xa5, 0x38, 0x3d, 0xd3, 0x08, 0x6a, 0x3e, 0x65, 0xa5, 0x0b, 0x3e,
  0x5f, 0x92, 0xff, 0x3d, 0x09, 0x77, 0x3d, 0x3e, 0xad, 0x3b, 0x6b, 0x3d,
  0x64, 0x05, 0x69, 0x3e, 0xa9, 0x3f, 0x74, 0xbd, 0x77, 0x71, 0x65, 0x3e,
  0xea, 0xdc, 0xab, 0x3c, 0xe1, 0x4e, 0xa0, 0xbd, 0x52, 0x95, 0x47, 0xbe,
  0xd0, 0xf5, 0x0c, 0x3e, 0x30, 0x22, 0x37, 0x3e, 0x5a, 0x6a, 0x86, 0x3d,
  0xb7, 0x71, 0x36, 0xbe, 0xe1, 0xd0, 0xab, 0xbc, 0xac, 0x77, 0xa5, 0xbd,
  0x8f, 0xbb, 0xd9, 0x3d, 0x0a, 0x9a, 0xa7, 0xbd, 0x06, 0xea, 0xca, 0x3d,
  0x72, 0x08, 0xb7, 0xbd, 0x6b, 0xff, 0xf0, 0x3d, 0x65, 0xae, 0x24, 0xbd,
  0x10, 0xab, 0x92, 0x3d, 0xcd, 0x32, 0x99, 0x3d, 0x03, 0x25, 0x99, 0xbd,
  0xe8, 0xe6, 0x40, 0xbe, 0xf5, 0xb6, 0xab, 0xbd, 0x95, 0x42, 0x4c, 0xbe,
  0x6a, 0x8c, 0xcf, 0xbc, 0xd6, 0x2a, 0x2c, 0xbe, 0x5c, 0x45, 0x11, 0x3c,
  0x21, 0x13, 0xee, 0xbd, 0x8b, 0xb5, 0xee, 0xbd, 0xff, 0x6b, 0x06, 0x3e,
  0x54, 0xb7, 0x92, 0xbc, 0x91, 0x2f, 0xba, 0x3d, 0xea, 0xb2, 0x4a, 0xbd,
  0x9b, 0xb1, 0x87, 0x3d, 0x92, 0x00, 0x05, 0xbd, 0xfc, 0xbe, 0x66, 0xbd,
  0xac, 0xe5, 0x69, 0x3d, 0xb1, 0xba, 0xff, 0xbd, 0x30, 0x5b, 0xdc, 0x3c,
  0x72, 0xaf, 0xc5, 0x3d, 0x94, 0xef, 0x0b, 0x3e, 0x56, 0x41, 0xc4, 0x3d,
  0x51, 0x62, 0x4c, 0xbe, 0x21, 0xa2, 0xff, 0x3d, 0xc1, 0xc1, 0xc6, 0x3d,
  0x99, 0xe2, 0xbb, 0xbd, 0xbf, 0x5d, 0xdf, 0x3c, 0x7e, 0x25, 0x2d, 0xbe,
  0x86, 0xd9, 0x94, 0x3d, 0x75, 0xac, 0x2b, 0xbe, 0x1e, 0x5d, 0xbc, 0xbd,
  0x5d, 0x6a, 0x9a, 0xbd, 0x59, 0x0a, 0x26, 0xbd, 0xc4, 0xa1, 0xd8, 0xbb,
  0xa9, 0x42, 0x91, 0x3d, 0x72, 0xdf, 0x16, 0xbe, 0xa5, 0xfc, 0x51, 0xbd,
  0x0c, 0x8b, 0xa9, 0x3b, 0xa5, 0xf2, 0x10, 0x3e, 0x79, 0xeb, 0x22, 0xbe,
  0x63, 0x8f, 0x08, 0x3d, 0x11, 0xaa, 0x89, 0x3d, 0x8b, 0x58, 0xc8, 0x3c,
  0x19, 0x40, 0x2f, 0xbe, 0x6c, 0x6f, 0x08, 0xbe, 0x80, 0x59, 0xb2, 0x3d,
  0x6e, 0x0a, 0xe6, 0xbc, 0xa7, 0x7a, 0x47, 0xbd, 0x62, 0xe9, 0x35, 0xbe,
  0x04, 0x21, 0x40, 0xbd, 0x05, 0x33, 0x0e, 0xbe, 0xc5, 0xb9, 0x14, 0xbe,
  0x11, 0x7f, 0xd5, 0xba, 0xa2, 0x41, 0x22, 0xbc, 0xd1, 0xe8, 0x71, 0xbd,
  0x13, 0x6d, 0x7f, 0x3d, 0x6e, 0x8d, 0x01, 0xbe, 0xa3, 0xa2, 0xc0, 0xbd,
  0x24, 0xcd, 0xd5, 0x3d, 0x63, 0x45, 0x4e, 0xbd, 0xaa, 0x8b, 0x30, 0xbb,
  0xcd, 0xf0, 0x0d, 0xbe, 0xf6, 0x0a, 0x72, 0x3d, 0x2b, 0x39, 0x80, 0x3d,
  0x1e, 0x30, 0xc1, 0xbd, 0x0d, 0x02, 0x76, 0x3c, 0x42, 0x73, 0x6a, 0xbe,
  0x71, 0x4e, 0xcd, 0xbd, 0x7f, 0x17, 0x6a, 0x3d, 0x5f, 0x04, 0xa4, 0xbc,
  0xc0, 0xbd, 0x9d, 0x3d, 0x44, 0x57, 0x87, 0xbd, 0x88, 0x8b, 0x9e, 0xbc,
  0x71, 0x73, 0x30, 0xbd, 0xbe, 0xab, 0x62, 0xbd, 0x2d, 0x5b, 0x4b, 0x3d,
  0x53, 0x98, 0xa5, 0xbc, 0x02, 0x19, 0xe1, 0xba, 0x66, 0xf4, 0xc6, 0xbd,
  0x3d, 0xd6, 0xe5, 0x3d, 0x6d, 0x64, 0x1b, 0xbd, 0x3a, 0x66, 0x20, 0xbe,
  0x8a, 0x97, 0x0f, 0x3e, 0xf8, 0xf5, 0x42, 0xbe, 0xd2, 0x81, 0x1b, 0x3c,
  0x56, 0x7f, 0xc9, 0xbd, 0x38, 0x18, 0xcf, 0xbd, 0xd5, 0x9a, 0x56, 0xbc,
  0xb9, 0x86, 0x86, 0xbd, 0x77, 0xb5, 0x05, 0x3d, 0x52, 0xc1, 0x13, 0x3d,
  0xfd, 0x73, 0x80, 0x3c, 0x1d, 0x5b, 0x17, 0x3d, 0xf7, 0x50, 0x0f, 0xbe,
  0x57, 0x5a, 0xd7, 0xba, 0x85, 0x86, 0xcc, 0x3b, 0x15, 0x62, 0x1c, 0xbe,
  0xcc, 0x97, 0xc9, 0xbd, 0xfe, 0xe0, 0x54, 0xbe, 0x82, 0xb5, 0x84, 0xbd,
  0xac, 0xc9, 0x30, 0xbd, 0x17, 0x62, 0x02, 0xbd, 0x41, 0x7a, 0xf3, 0x3c,
  0x16, 0xa4, 0x66, 0xbd, 0xb9, 0xaf, 0x72, 0xbd, 0x04, 0x31, 0x02, 0xbe,
  0x4e, 0x34, 0x02, 0xbe, 0xaa, 0x96, 0x30, 0x3e, 0x47, 0x7b, 0x1a, 0xbc,
  0xf5, 0xec, 0x04, 0xbe, 0x18, 0x09, 0x57, 0x3c, 0xc1, 0x75, 0x14, 0xbd,
  0xe2, 0x09, 0xc5, 0x3d, 0x7a, 0x7b, 0x08, 0x3d, 0x89, 0x29, 0xaf, 0x3c,
  0x20, 0x2a, 0x30, 0x3d, 0x62, 0x30, 0xaa, 0xbb, 0xb7, 0x8d, 0xa6, 0x3d,
  0x58, 0x2d, 0xa0, 0xbd, 0xed, 0x29, 0xee, 0xbd, 0x44, 0x36, 0x07, 0xbe,
  0xe9, 0x5e, 0x55, 0xbd, 0xb0, 0xd4, 0x93, 0xbd, 0x56, 0xeb, 0x1d, 0x3e,
  0x68, 0x7d, 0xdc, 0xbd, 0xb2, 0x3f, 0xd7, 0x3d, 0xda, 0xa1, 0xd1, 0x3d,
  0x08, 0x8e, 0xec, 0x3c, 0xcb, 0x9f, 0xde, 0xbd, 0xb2, 0x4f, 0xca, 0xbd,
  0xc0, 0xb3, 0xcb, 0x3b, 0xd6, 0x4f, 0xfb, 0x3d, 0x6a, 0x56, 0xeb, 0x3d,
  0xa4, 0xc9, 0xf6, 0xbd, 0xf6, 0xa3, 0xc1, 0x3d, 0x78, 0x10, 0x06, 0xbe,
  0xf2, 0x44, 0x0c, 0x3c, 0xa9, 0xd7, 0x95, 0x3b, 0xf3, 0xb5, 0xf4, 0xbd,
  0x16, 0xfb, 0xc1, 0x3d, 0xf0, 0xa5, 0x0b, 0x3e, 0xcf, 0xeb, 0xeb, 0xbd,
  0x54, 0x2e, 0x06, 0xbe, 0x9d, 0xb3, 0x41, 0x3e, 0x76, 0xce, 0x60, 0x3c,
  0xc6, 0xb3, 0xc4, 0xbd, 0x4a, 0x50, 0x8a, 0x3d, 0x08, 0xcd, 0xd3, 0x3d,
  0xe8, 0x22, 0xcb, 0x3d, 0x96, 0x1e, 0xf9, 0xbd, 0x52, 0x2e, 0x13, 0x3e,
  0x11, 0xdd, 0x4c, 0xbd, 0x5f, 0x4a, 0xe4, 0x3c, 0x82, 0xef, 0x69, 0xbd,
  0x4e, 0xad, 0x28, 0xbd, 0x24, 0xe0, 0x16, 0xbd, 0xd8, 0x1b, 0x82, 0xbd,
  0x38, 0x03, 0x26, 0x3e, 0x7e, 0x2d, 0x06, 0x3e, 0xad, 0xb6, 0x2d, 0xbe,
  0xc8, 0x3d, 0x8e, 0x3d, 0xed, 0xaa, 0xde, 0xbc, 0x6a, 0x3a, 0xf6, 0x3d,
  0xed, 0xc1, 0x24, 0xbd, 0x78, 0x6f, 0x0b, 0x3e, 0x22, 0x91, 0xa1, 0xbd,
  0xc7, 0xe9, 0x9a, 0x3d, 0xa4, 0x37, 0xe6, 0xbd, 0xc1, 0x61, 0x61, 0xbd,
